node {
  name: "anchor/data"
  op: "Const"
  attr {
    key: "dtype"
    value {
      type: DT_FLOAT
    }
  }
  attr {
    key: "value"
    value {
      tensor {
        dtype: DT_FLOAT
        tensor_shape {
          dim {
            size: 4200
          }
          dim {
            size: 4
          }
        }
        tensor_content: "\315\314\314;\315\314\314;\315\314L<\315\314L<\315\314\314;\315\314\314;\315\314L<\315\314L<\316\314\314<\316\314\314<\315\314\314<\315\314\314<\000\000\000=\000\000\000=\314\314L<\314\314L<\315\314L=\315\314L=\314\314\314<\314\314\314<fff=fff=\314\314L<\314\314L<\232\231\231=\232\231\231=\314\314\314<\314\314\314<ff\246=ff\246=\320\314L<\320\314L<\314\314\314=\314\314\314=\314\314\314<\314\314\314<\231\231\331=\231\231\331=\320\314L<\320\314L<\000\000\000>\000\000\000>\314\314\314<\314\314\314<ff\006>ff\006>\320\314L<\320\314L<\231\231\031>\231\231\031>\320\314\314<\320\314\314<\000\000 >\000\000 >\320\314L<\320\314L<333>333>\320\314\314<\320\314\314<\232\2319>\232\2319>\320\314L<\320\314L<\315\314L>\315\314L>\320\314\314<\320\314\314<43S>43S>\320\314L<\320\314L<fff>fff>\320\314\314<\320\314\314<\314\314l>\314\314l>\320\314L<\320\314L<\377\377\177>\377\377\177>\320\314\314<\320\314\314<33\203>33\203>\320\314L<\320\314L<\314\314\214>\314\314\214>\320\314\314<\320\314\314<\000\000\220>\000\000\220>\300\314L<\300\314L<\232\231\231>\232\231\231>\320\314\314<\320\314\314<\315\314\234>\315\314\234>\300\314L<\300\314L<ff\246>ff\246>\320\314\314<\320\314\314<\232\231\251>\232\231\251>\300\314L<\300\314L<43\263>43\263>\320\314\314<\320\314\314<gf\266>gf\266>\300\314L<\300\314L<\000\000\300>\000\000\300>\320\314\314<\320\314\314<33\303>33\303>\300\314L<\300\314L<\314\314\314>\314\314\314>\320\314\314<\320\314\314<\000\000\320>\000\000\320>\300\314L<\300\314L<\232\231\331>\232\231\331>\320\314\314<\320\314\314<\315\314\334>\315\314\334>\300\314L<\300\314L<ff\346>ff\346>\320\314\314<\320\314\314<\232\231\351>\232\231\351>\300\314L<\300\314L<43\363>43\363>\320\314\314<\320\314\314<gf\366>gf\366>\300\314L<\300\314L<\000\000\000?\000\000\000?\320\314\314<\320\314\314<\232\231\001?\232\231\001?\300\314L<\300\314L<gf\006?gf\006?\300\314\314<\300\314\314<\000\000\010?\000\000\010?\300\314L<\300\314L<\315\314\014?\315\314\014?\300\314\314<\300\314\314<ff\016?ff\016?\300\314L<\300\314L<33\023?33\023?\300\314\314<\300\314\314<\314\314\024?\314\314\024?\300\314L<\300\314L<\232\231\031?\232\231\031?\300\314\314<\300\314\314<43\033?43\033?\300\314L<\300\314L<\000\000 ?\000\000 ?\300\314\314<\300\314\314<\232\231!?\232\231!?\300\314L<\300\314L<gf&?gf&?\300\314\314<\300\314\314<\000\000(?\000\000(?\300\314L<\300\314L<\315\314,?\315\314,?\300\314\314<\300\314\314<ff.?ff.?\300\314L<\300\314L<333?333?\300\314\314<\300\314\314<\314\3144?\314\3144?\300\314L<\300\314L<\232\2319?\232\2319?\300\314\314<\300\314\314<43;?43;?\300\314L<\300\314L<\000\000@?\000\000@?\300\314\314<\300\314\314<\232\231A?\232\231A?\300\314L<\300\314L<gfF?gfF?\300\314\314<\300\314\314<\000\000H?\000\000H?\300\314L<\300\314L<\315\314L?\315\314L?\300\314\314<\300\314\314<ffN?ffN?\300\314L<\300\314L<33S?33S?\300\314\314<\300\314\314<\314\314T?\314\314T?\300\314L<\300\314L<\232\231Y?\232\231Y?\300\314\314<\300\314\314<43[?43[?\300\314L<\300\314L<\000\000`?\000\000`?\300\314\314<\300\314\314<\232\231a?\232\231a?\300\314L<\300\314L<gff?gff?\300\314\314<\300\314\314<\000\000h?\000\000h?\300\314L<\300\314L<\315\314l?\315\314l?\300\314\314<\300\314\314<ffn?ffn?\300\314L<\300\314L<33s?33s?\300\314\314<\300\314\314<\314\314t?\314\314t?\300\314L<\300\314L<\232\231y?\232\231y?\300\314\314<\300\314\314<43{?43{?\300\314L<\300\314L<\315\314\314;\315\314\314;\315\314L<\315\314L<\315\314\314;\315\314\314;\315\314L<\315\314L<\316\314\314<\316\314\314<\315\314\314<\315\314\314<\000\000\000=\000\000\000=\314\314L<\314\314L<\315\314L=\315\314L=\314\314\314<\314\314\314<fff=fff=\314\314L<\314\314L<\232\231\231=\232\231\231=\314\314\314<\314\314\314<ff\246=ff\246=\320\314L<\320\314L<\314\314\314=\314\314\314=\314\314\314<\314\314\314<\231\231\331=\231\231\331=\320\314L<\320\314L<\000\000\000>\000\000\000>\314\314\314<\314\314\314<ff\006>ff\006>\320\314L<\320\314L<\231\231\031>\231\231\031>\320\314\314<\320\314\314<\000\000 >\000\000 >\320\314L<\320\314L<333>333>\320\314\314<\320\314\314<\232\2319>\232\2319>\320\314L<\320\314L<\315\314L>\315\314L>\320\314\314<\320\314\314<43S>43S>\320\314L<\320\314L<fff>fff>\320\314\314<\320\314\314<\314\314l>\314\314l>\320\314L<\320\314L<\377\377\177>\377\377\177>\320\314\314<\320\314\314<33\203>33\203>\320\314L<\320\314L<\314\314\214>\314\314\214>\320\314\314<\320\314\314<\000\000\220>\000\000\220>\300\314L<\300\314L<\232\231\231>\232\231\231>\320\314\314<\320\314\314<\315\314\234>\315\314\234>\300\314L<\300\314L<ff\246>ff\246>\320\314\314<\320\314\314<\232\231\251>\232\231\251>\300\314L<\300\314L<43\263>43\263>\320\314\314<\320\314\314<gf\266>gf\266>\300\314L<\300\314L<\000\000\300>\000\000\300>\320\314\314<\320\314\314<33\303>33\303>\300\314L<\300\314L<\314\314\314>\314\314\314>\320\314\314<\320\314\314<\000\000\320>\000\000\320>\300\314L<\300\314L<\232\231\331>\232\231\331>\320\314\314<\320\314\314<\315\314\334>\315\314\334>\300\314L<\300\314L<ff\346>ff\346>\320\314\314<\320\314\314<\232\231\351>\232\231\351>\300\314L<\300\314L<43\363>43\363>\320\314\314<\320\314\314<gf\366>gf\366>\300\314L<\300\314L<\000\000\000?\000\000\000?\320\314\314<\320\314\314<\232\231\001?\232\231\001?\300\314L<\300\314L<gf\006?gf\006?\300\314\314<\300\314\314<\000\000\010?\000\000\010?\300\314L<\300\314L<\315\314\014?\315\314\014?\300\314\314<\300\314\314<ff\016?ff\016?\300\314L<\300\314L<33\023?33\023?\300\314\314<\300\314\314<\314\314\024?\314\314\024?\300\314L<\300\314L<\232\231\031?\232\231\031?\300\314\314<\300\314\314<43\033?43\033?\300\314L<\300\314L<\000\000 ?\000\000 ?\300\314\314<\300\314\314<\232\231!?\232\231!?\300\314L<\300\314L<gf&?gf&?\300\314\314<\300\314\314<\000\000(?\000\000(?\300\314L<\300\314L<\315\314,?\315\314,?\300\314\314<\300\314\314<ff.?ff.?\300\314L<\300\314L<333?333?\300\314\314<\300\314\314<\314\3144?\314\3144?\300\314L<\300\314L<\232\2319?\232\2319?\300\314\314<\300\314\314<43;?43;?\300\314L<\300\314L<\000\000@?\000\000@?\300\314\314<\300\314\314<\232\231A?\232\231A?\300\314L<\300\314L<gfF?gfF?\300\314\314<\300\314\314<\000\000H?\000\000H?\300\314L<\300\314L<\315\314L?\315\314L?\300\314\314<\300\314\314<ffN?ffN?\300\314L<\300\314L<33S?33S?\300\314\314<\300\314\314<\314\314T?\314\314T?\300\314L<\300\314L<\232\231Y?\232\231Y?\300\314\314<\300\314\314<43[?43[?\300\314L<\300\314L<\000\000`?\000\000`?\300\314\314<\300\314\314<\232\231a?\232\231a?\300\314L<\300\314L<gff?gff?\300\314\314<\300\314\314<\000\000h?\000\000h?\300\314L<\300\314L<\315\314l?\315\314l?\300\314\314<\300\314\314<ffn?ffn?\300\314L<\300\314L<33s?33s?\300\314\314<\300\314\314<\314\314t?\314\314t?\300\314L<\300\314L<\232\231y?\232\231y?\300\314\314<\300\314\314<43{?43{?\300\314L<\300\314L<\315\314\314;\315\314\314;\315\314L<\315\314L<\315\314\314;\315\314\314;\315\314L<\315\314L<\316\314\314<\316\314\314<\315\314\314<\315\314\314<\000\000\000=\000\000\000=\314\314L<\314\314L<\315\314L=\315\314L=\314\314\314<\314\314\314<fff=fff=\314\314L<\314\314L<\232\231\231=\232\231\231=\314\314\314<\314\314\314<ff\246=ff\246=\320\314L<\320\314L<\314\314\314=\314\314\314=\314\314\314<\314\314\314<\231\231\331=\231\231\331=\320\314L<\320\314L<\000\000\000>\000\000\000>\314\314\314<\314\314\314<ff\006>ff\006>\320\314L<\320\314L<\231\231\031>\231\231\031>\320\314\314<\320\314\314<\000\000 >\000\000 >\320\314L<\320\314L<333>333>\320\314\314<\320\314\314<\232\2319>\232\2319>\320\314L<\320\314L<\315\314L>\315\314L>\320\314\314<\320\314\314<43S>43S>\320\314L<\320\314L<fff>fff>\320\314\314<\320\314\314<\314\314l>\314\314l>\320\314L<\320\314L<\377\377\177>\377\377\177>\320\314\314<\320\314\314<33\203>33\203>\320\314L<\320\314L<\314\314\214>\314\314\214>\320\314\314<\320\314\314<\000\000\220>\000\000\220>\300\314L<\300\314L<\232\231\231>\232\231\231>\320\314\314<\320\314\314<\315\314\234>\315\314\234>\300\314L<\300\314L<ff\246>ff\246>\320\314\314<\320\314\314<\232\231\251>\232\231\251>\300\314L<\300\314L<43\263>43\263>\320\314\314<\320\314\314<gf\266>gf\266>\300\314L<\300\314L<\000\000\300>\000\000\300>\320\314\314<\320\314\314<33\303>33\303>\300\314L<\300\314L<\314\314\314>\314\314\314>\320\314\314<\320\314\314<\000\000\320>\000\000\320>\300\314L<\300\314L<\232\231\331>\232\231\331>\320\314\314<\320\314\314<\315\314\334>\315\314\334>\300\314L<\300\314L<ff\346>ff\346>\320\314\314<\320\314\314<\232\231\351>\232\231\351>\300\314L<\300\314L<43\363>43\363>\320\314\314<\320\314\314<gf\366>gf\366>\300\314L<\300\314L<\000\000\000?\000\000\000?\320\314\314<\320\314\314<\232\231\001?\232\231\001?\300\314L<\300\314L<gf\006?gf\006?\300\314\314<\300\314\314<\000\000\010?\000\000\010?\300\314L<\300\314L<\315\314\014?\315\314\014?\300\314\314<\300\314\314<ff\016?ff\016?\300\314L<\300\314L<33\023?33\023?\300\314\314<\300\314\314<\314\314\024?\314\314\024?\300\314L<\300\314L<\232\231\031?\232\231\031?\300\314\314<\300\314\314<43\033?43\033?\300\314L<\300\314L<\000\000 ?\000\000 ?\300\314\314<\300\314\314<\232\231!?\232\231!?\300\314L<\300\314L<gf&?gf&?\300\314\314<\300\314\314<\000\000(?\000\000(?\300\314L<\300\314L<\315\314,?\315\314,?\300\314\314<\300\314\314<ff.?ff.?\300\314L<\300\314L<333?333?\300\314\314<\300\314\314<\314\3144?\314\3144?\300\314L<\300\314L<\232\2319?\232\2319?\300\314\314<\300\314\314<43;?43;?\300\314L<\300\314L<\000\000@?\000\000@?\300\314\314<\300\314\314<\232\231A?\232\231A?\300\314L<\300\314L<gfF?gfF?\300\314\314<\300\314\314<\000\000H?\000\000H?\300\314L<\300\314L<\315\314L?\315\314L?\300\314\314<\300\314\314<ffN?ffN?\300\314L<\300\314L<33S?33S?\300\314\314<\300\314\314<\314\314T?\314\314T?\300\314L<\300\314L<\232\231Y?\232\231Y?\300\314\314<\300\314\314<43[?43[?\300\314L<\300\314L<\000\000`?\000\000`?\300\314\314<\300\314\314<\232\231a?\232\231a?\300\314L<\300\314L<gff?gff?\300\314\314<\300\314\314<\000\000h?\000\000h?\300\314L<\300\314L<\315\314l?\315\314l?\300\314\314<\300\314\314<ffn?ffn?\300\314L<\300\314L<33s?33s?\300\314\314<\300\314\314<\314\314t?\314\314t?\300\314L<\300\314L<\232\231y?\232\231y?\300\314\314<\300\314\314<43{?43{?\300\314L<\300\314L<\315\314\314;\315\314\314;\315\314L<\315\314L<\315\314\314;\315\314\314;\315\314L<\315\314L<\316\314\314<\316\314\314<\315\314\314<\315\314\314<\000\000\000=\000\000\000=\314\314L<\314\314L<\315\314L=\315\314L=\314\314\314<\314\314\314<fff=fff=\314\314L<\314\314L<\232\231\231=\232\231\231=\314\314\314<\314\314\314<ff\246=ff\246=\320\314L<\320\314L<\314\314\314=\314\314\314=\314\314\314<\314\314\314<\231\231\331=\231\231\331=\320\314L<\320\314L<\000\000\000>\000\000\000>\314\314\314<\314\314\314<ff\006>ff\006>\320\314L<\320\314L<\231\231\031>\231\231\031>\320\314\314<\320\314\314<\000\000 >\000\000 >\320\314L<\320\314L<333>333>\320\314\314<\320\314\314<\232\2319>\232\2319>\320\314L<\320\314L<\315\314L>\315\314L>\320\314\314<\320\314\314<43S>43S>\320\314L<\320\314L<fff>fff>\320\314\314<\320\314\314<\314\314l>\314\314l>\320\314L<\320\314L<\377\377\177>\377\377\177>\320\314\314<\320\314\314<33\203>33\203>\320\314L<\320\314L<\314\314\214>\314\314\214>\320\314\314<\320\314\314<\000\000\220>\000\000\220>\300\314L<\300\314L<\232\231\231>\232\231\231>\320\314\314<\320\314\314<\315\314\234>\315\314\234>\300\314L<\300\314L<ff\246>ff\246>\320\314\314<\320\314\314<\232\231\251>\232\231\251>\300\314L<\300\314L<43\263>43\263>\320\314\314<\320\314\314<gf\266>gf\266>\300\314L<\300\314L<\000\000\300>\000\000\300>\320\314\314<\320\314\314<33\303>33\303>\300\314L<\300\314L<\314\314\314>\314\314\314>\320\314\314<\320\314\314<\000\000\320>\000\000\320>\300\314L<\300\314L<\232\231\331>\232\231\331>\320\314\314<\320\314\314<\315\314\334>\315\314\334>\300\314L<\300\314L<ff\346>ff\346>\320\314\314<\320\314\314<\232\231\351>\232\231\351>\300\314L<\300\314L<43\363>43\363>\320\314\314<\320\314\314<gf\366>gf\366>\300\314L<\300\314L<\000\000\000?\000\000\000?\320\314\314<\320\314\314<\232\231\001?\232\231\001?\300\314L<\300\314L<gf\006?gf\006?\300\314\314<\300\314\314<\000\000\010?\000\000\010?\300\314L<\300\314L<\315\314\014?\315\314\014?\300\314\314<\300\314\314<ff\016?ff\016?\300\314L<\300\314L<33\023?33\023?\300\314\314<\300\314\314<\314\314\024?\314\314\024?\300\314L<\300\314L<\232\231\031?\232\231\031?\300\314\314<\300\314\314<43\033?43\033?\300\314L<\300\314L<\000\000 ?\000\000 ?\300\314\314<\300\314\314<\232\231!?\232\231!?\300\314L<\300\314L<gf&?gf&?\300\314\314<\300\314\314<\000\000(?\000\000(?\300\314L<\300\314L<\315\314,?\315\314,?\300\314\314<\300\314\314<ff.?ff.?\300\314L<\300\314L<333?333?\300\314\314<\300\314\314<\314\3144?\314\3144?\300\314L<\300\314L<\232\2319?\232\2319?\300\314\314<\300\314\314<43;?43;?\300\314L<\300\314L<\000\000@?\000\000@?\300\314\314<\300\314\314<\232\231A?\232\231A?\300\314L<\300\314L<gfF?gfF?\300\314\314<\300\314\314<\000\000H?\000\000H?\300\314L<\300\314L<\315\314L?\315\314L?\300\314\314<\300\314\314<ffN?ffN?\300\314L<\300\314L<33S?33S?\300\314\314<\300\314\314<\314\314T?\314\314T?\300\314L<\300\314L<\232\231Y?\232\231Y?\300\314\314<\300\314\314<43[?43[?\300\314L<\300\314L<\000\000`?\000\000`?\300\314\314<\300\314\314<\232\231a?\232\231a?\300\314L<\300\314L<gff?gff?\300\314\314<\300\314\314<\000\000h?\000\000h?\300\314L<\300\314L<\315\314l?\315\314l?\300\314\314<\300\314\314<ffn?ffn?\300\314L<\300\314L<33s?33s?\300\314\314<\300\314\314<\314\314t?\314\314t?\300\314L<\300\314L<\232\231y?\232\231y?\300\314\314<\300\314\314<43{?43{?\300\314L<\300\314L<\315\314\314;\315\314\314;\315\314L<\315\314L<\315\314\314;\315\314\314;\315\314L<\315\314L<\316\314\314<\316\314\314<\315\314\314<\315\314\314<\000\000\000=\000\000\000=\314\314L<\314\314L<\315\314L=\315\314L=\314\314\314<\314\314\314<fff=fff=\314\314L<\314\314L<\232\231\231=\232\231\231=\314\314\314<\314\314\314<ff\246=ff\246=\320\314L<\320\314L<\314\314\314=\314\314\314=\314\314\314<\314\314\314<\231\231\331=\231\231\331=\320\314L<\320\314L<\000\000\000>\000\000\000>\314\314\314<\314\314\314<ff\006>ff\006>\320\314L<\320\314L<\231\231\031>\231\231\031>\320\314\314<\320\314\314<\000\000 >\000\000 >\320\314L<\320\314L<333>333>\320\314\314<\320\314\314<\232\2319>\232\2319>\320\314L<\320\314L<\315\314L>\315\314L>\320\314\314<\320\314\314<43S>43S>\320\314L<\320\314L<fff>fff>\320\314\314<\320\314\314<\314\314l>\314\314l>\320\314L<\320\314L<\377\377\177>\377\377\177>\320\314\314<\320\314\314<33\203>33\203>\320\314L<\320\314L<\314\314\214>\314\314\214>\320\314\314<\320\314\314<\000\000\220>\000\000\220>\300\314L<\300\314L<\232\231\231>\232\231\231>\320\314\314<\320\314\314<\315\314\234>\315\314\234>\300\314L<\300\314L<ff\246>ff\246>\320\314\314<\320\314\314<\232\231\251>\232\231\251>\300\314L<\300\314L<43\263>43\263>\320\314\314<\320\314\314<gf\266>gf\266>\300\314L<\300\314L<\000\000\300>\000\000\300>\320\314\314<\320\314\314<33\303>33\303>\300\314L<\300\314L<\314\314\314>\314\314\314>\320\314\314<\320\314\314<\000\000\320>\000\000\320>\300\314L<\300\314L<\232\231\331>\232\231\331>\320\314\314<\320\314\314<\315\314\334>\315\314\334>\300\314L<\300\314L<ff\346>ff\346>\320\314\314<\320\314\314<\232\231\351>\232\231\351>\300\314L<\300\314L<43\363>43\363>\320\314\314<\320\314\314<gf\366>gf\366>\300\314L<\300\314L<\000\000\000?\000\000\000?\320\314\314<\320\314\314<\232\231\001?\232\231\001?\300\314L<\300\314L<gf\006?gf\006?\300\314\314<\300\314\314<\000\000\010?\000\000\010?\300\314L<\300\314L<\315\314\014?\315\314\014?\300\314\314<\300\314\314<ff\016?ff\016?\300\314L<\300\314L<33\023?33\023?\300\314\314<\300\314\314<\314\314\024?\314\314\024?\300\314L<\300\314L<\232\231\031?\232\231\031?\300\314\314<\300\314\314<43\033?43\033?\300\314L<\300\314L<\000\000 ?\000\000 ?\300\314\314<\300\314\314<\232\231!?\232\231!?\300\314L<\300\314L<gf&?gf&?\300\314\314<\300\314\314<\000\000(?\000\000(?\300\314L<\300\314L<\315\314,?\315\314,?\300\314\314<\300\314\314<ff.?ff.?\300\314L<\300\314L<333?333?\300\314\314<\300\314\314<\314\3144?\314\3144?\300\314L<\300\314L<\232\2319?\232\2319?\300\314\314<\300\314\314<43;?43;?\300\314L<\300\314L<\000\000@?\000\000@?\300\314\314<\300\314\314<\232\231A?\232\231A?\300\314L<\300\314L<gfF?gfF?\300\314\314<\300\314\314<\000\000H?\000\000H?\300\314L<\300\314L<\315\314L?\315\314L?\300\314\314<\300\314\314<ffN?ffN?\300\314L<\300\314L<33S?33S?\300\314\314<\300\314\314<\314\314T?\314\314T?\300\314L<\300\314L<\232\231Y?\232\231Y?\300\314\314<\300\314\314<43[?43[?\300\314L<\300\314L<\000\000`?\000\000`?\300\314\314<\300\314\314<\232\231a?\232\231a?\300\314L<\300\314L<gff?gff?\300\314\314<\300\314\314<\000\000h?\000\000h?\300\314L<\300\314L<\315\314l?\315\314l?\300\314\314<\300\314\314<ffn?ffn?\300\314L<\300\314L<33s?33s?\300\314\314<\300\314\314<\314\314t?\314\314t?\300\314L<\300\314L<\232\231y?\232\231y?\300\314\314<\300\314\314<43{?43{?\300\314L<\300\314L<\315\314\314;\315\314\314;\315\314L<\315\314L<\315\314\314;\315\314\314;\315\314L<\315\314L<\316\314\314<\316\314\314<\315\314\314<\315\314\314<\000\000\000=\000\000\000=\314\314L<\314\314L<\315\314L=\315\314L=\314\314\314<\314\314\314<fff=fff=\314\314L<\314\314L<\232\231\231=\232\231\231=\314\314\314<\314\314\314<ff\246=ff\246=\320\314L<\320\314L<\314\314\314=\314\314\314=\314\314\314<\314\314\314<\231\231\331=\231\231\331=\320\314L<\320\314L<\000\000\000>\000\000\000>\314\314\314<\314\314\314<ff\006>ff\006>\320\314L<\320\314L<\231\231\031>\231\231\031>\320\314\314<\320\314\314<\000\000 >\000\000 >\320\314L<\320\314L<333>333>\320\314\314<\320\314\314<\232\2319>\232\2319>\320\314L<\320\314L<\315\314L>\315\314L>\320\314\314<\320\314\314<43S>43S>\320\314L<\320\314L<fff>fff>\320\314\314<\320\314\314<\314\314l>\314\314l>\320\314L<\320\314L<\377\377\177>\377\377\177>\320\314\314<\320\314\314<33\203>33\203>\320\314L<\320\314L<\314\314\214>\314\314\214>\320\314\314<\320\314\314<\000\000\220>\000\000\220>\300\314L<\300\314L<\232\231\231>\232\231\231>\320\314\314<\320\314\314<\315\314\234>\315\314\234>\300\314L<\300\314L<ff\246>ff\246>\320\314\314<\320\314\314<\232\231\251>\232\231\251>\300\314L<\300\314L<43\263>43\263>\320\314\314<\320\314\314<gf\266>gf\266>\300\314L<\300\314L<\000\000\300>\000\000\300>\320\314\314<\320\314\314<33\303>33\303>\300\314L<\300\314L<\314\314\314>\314\314\314>\320\314\314<\320\314\314<\000\000\320>\000\000\320>\300\314L<\300\314L<\232\231\331>\232\231\331>\320\314\314<\320\314\314<\315\314\334>\315\314\334>\300\314L<\300\314L<ff\346>ff\346>\320\314\314<\320\314\314<\232\231\351>\232\231\351>\300\314L<\300\314L<43\363>43\363>\320\314\314<\320\314\314<gf\366>gf\366>\300\314L<\300\314L<\000\000\000?\000\000\000?\320\314\314<\320\314\314<\232\231\001?\232\231\001?\300\314L<\300\314L<gf\006?gf\006?\300\314\314<\300\314\314<\000\000\010?\000\000\010?\300\314L<\300\314L<\315\314\014?\315\314\014?\300\314\314<\300\314\314<ff\016?ff\016?\300\314L<\300\314L<33\023?33\023?\300\314\314<\300\314\314<\314\314\024?\314\314\024?\300\314L<\300\314L<\232\231\031?\232\231\031?\300\314\314<\300\314\314<43\033?43\033?\300\314L<\300\314L<\000\000 ?\000\000 ?\300\314\314<\300\314\314<\232\231!?\232\231!?\300\314L<\300\314L<gf&?gf&?\300\314\314<\300\314\314<\000\000(?\000\000(?\300\314L<\300\314L<\315\314,?\315\314,?\300\314\314<\300\314\314<ff.?ff.?\300\314L<\300\314L<333?333?\300\314\314<\300\314\314<\314\3144?\314\3144?\300\314L<\300\314L<\232\2319?\232\2319?\300\314\314<\300\314\314<43;?43;?\300\314L<\300\314L<\000\000@?\000\000@?\300\314\314<\300\314\314<\232\231A?\232\231A?\300\314L<\300\314L<gfF?gfF?\300\314\314<\300\314\314<\000\000H?\000\000H?\300\314L<\300\314L<\315\314L?\315\314L?\300\314\314<\300\314\314<ffN?ffN?\300\314L<\300\314L<33S?33S?\300\314\314<\300\314\314<\314\314T?\314\314T?\300\314L<\300\314L<\232\231Y?\232\231Y?\300\314\314<\300\314\314<43[?43[?\300\314L<\300\314L<\000\000`?\000\000`?\300\314\314<\300\314\314<\232\231a?\232\231a?\300\314L<\300\314L<gff?gff?\300\314\314<\300\314\314<\000\000h?\000\000h?\300\314L<\300\314L<\315\314l?\315\314l?\300\314\314<\300\314\314<ffn?ffn?\300\314L<\300\314L<33s?33s?\300\314\314<\300\314\314<\314\314t?\314\314t?\300\314L<\300\314L<\232\231y?\232\231y?\300\314\314<\300\314\314<43{?43{?\300\314L<\300\314L<\315\314\314;\315\314\314;\315\314L<\315\314L<\315\314\314;\315\314\314;\315\314L<\315\314L<\316\314\314<\316\314\314<\315\314\314<\315\314\314<\000\000\000=\000\000\000=\314\314L<\314\314L<\315\314L=\315\314L=\314\314\314<\314\314\314<fff=fff=\314\314L<\314\314L<\232\231\231=\232\231\231=\314\314\314<\314\314\314<ff\246=ff\246=\320\314L<\320\314L<\314\314\314=\314\314\314=\314\314\314<\314\314\314<\231\231\331=\231\231\331=\320\314L<\320\314L<\000\000\000>\000\000\000>\314\314\314<\314\314\314<ff\006>ff\006>\320\314L<\320\314L<\231\231\031>\231\231\031>\320\314\314<\320\314\314<\000\000 >\000\000 >\320\314L<\320\314L<333>333>\320\314\314<\320\314\314<\232\2319>\232\2319>\320\314L<\320\314L<\315\314L>\315\314L>\320\314\314<\320\314\314<43S>43S>\320\314L<\320\314L<fff>fff>\320\314\314<\320\314\314<\314\314l>\314\314l>\320\314L<\320\314L<\377\377\177>\377\377\177>\320\314\314<\320\314\314<33\203>33\203>\320\314L<\320\314L<\314\314\214>\314\314\214>\320\314\314<\320\314\314<\000\000\220>\000\000\220>\300\314L<\300\314L<\232\231\231>\232\231\231>\320\314\314<\320\314\314<\315\314\234>\315\314\234>\300\314L<\300\314L<ff\246>ff\246>\320\314\314<\320\314\314<\232\231\251>\232\231\251>\300\314L<\300\314L<43\263>43\263>\320\314\314<\320\314\314<gf\266>gf\266>\300\314L<\300\314L<\000\000\300>\000\000\300>\320\314\314<\320\314\314<33\303>33\303>\300\314L<\300\314L<\314\314\314>\314\314\314>\320\314\314<\320\314\314<\000\000\320>\000\000\320>\300\314L<\300\314L<\232\231\331>\232\231\331>\320\314\314<\320\314\314<\315\314\334>\315\314\334>\300\314L<\300\314L<ff\346>ff\346>\320\314\314<\320\314\314<\232\231\351>\232\231\351>\300\314L<\300\314L<43\363>43\363>\320\314\314<\320\314\314<gf\366>gf\366>\300\314L<\300\314L<\000\000\000?\000\000\000?\320\314\314<\320\314\314<\232\231\001?\232\231\001?\300\314L<\300\314L<gf\006?gf\006?\300\314\314<\300\314\314<\000\000\010?\000\000\010?\300\314L<\300\314L<\315\314\014?\315\314\014?\300\314\314<\300\314\314<ff\016?ff\016?\300\314L<\300\314L<33\023?33\023?\300\314\314<\300\314\314<\314\314\024?\314\314\024?\300\314L<\300\314L<\232\231\031?\232\231\031?\300\314\314<\300\314\314<43\033?43\033?\300\314L<\300\314L<\000\000 ?\000\000 ?\300\314\314<\300\314\314<\232\231!?\232\231!?\300\314L<\300\314L<gf&?gf&?\300\314\314<\300\314\314<\000\000(?\000\000(?\300\314L<\300\314L<\315\314,?\315\314,?\300\314\314<\300\314\314<ff.?ff.?\300\314L<\300\314L<333?333?\300\314\314<\300\314\314<\314\3144?\314\3144?\300\314L<\300\314L<\232\2319?\232\2319?\300\314\314<\300\314\314<43;?43;?\300\314L<\300\314L<\000\000@?\000\000@?\300\314\314<\300\314\314<\232\231A?\232\231A?\300\314L<\300\314L<gfF?gfF?\300\314\314<\300\314\314<\000\000H?\000\000H?\300\314L<\300\314L<\315\314L?\315\314L?\300\314\314<\300\314\314<ffN?ffN?\300\314L<\300\314L<33S?33S?\300\314\314<\300\314\314<\314\314T?\314\314T?\300\314L<\300\314L<\232\231Y?\232\231Y?\300\314\314<\300\314\314<43[?43[?\300\314L<\300\314L<\000\000`?\000\000`?\300\314\314<\300\314\314<\232\231a?\232\231a?\300\314L<\300\314L<gff?gff?\300\314\314<\300\314\314<\000\000h?\000\000h?\300\314L<\300\314L<\315\314l?\315\314l?\300\314\314<\300\314\314<ffn?ffn?\300\314L<\300\314L<33s?33s?\300\314\314<\300\314\314<\314\314t?\314\314t?\300\314L<\300\314L<\232\231y?\232\231y?\300\314\314<\300\314\314<43{?43{?\300\314L<\300\314L<\315\314\314;\315\314\314;\315\314L<\315\314L<\315\314\314;\315\314\314;\315\314L<\315\314L<\316\314\314<\316\314\314<\315\314\314<\315\314\314<\000\000\000=\000\000\000=\314\314L<\314\314L<\315\314L=\315\314L=\314\314\314<\314\314\314<fff=fff=\314\314L<\314\314L<\232\231\231=\232\231\231=\314\314\314<\314\314\314<ff\246=ff\246=\320\314L<\320\314L<\314\314\314=\314\314\314=\314\314\314<\314\314\314<\231\231\331=\231\231\331=\320\314L<\320\314L<\000\000\000>\000\000\000>\314\314\314<\314\314\314<ff\006>ff\006>\320\314L<\320\314L<\231\231\031>\231\231\031>\320\314\314<\320\314\314<\000\000 >\000\000 >\320\314L<\320\314L<333>333>\320\314\314<\320\314\314<\232\2319>\232\2319>\320\314L<\320\314L<\315\314L>\315\314L>\320\314\314<\320\314\314<43S>43S>\320\314L<\320\314L<fff>fff>\320\314\314<\320\314\314<\314\314l>\314\314l>\320\314L<\320\314L<\377\377\177>\377\377\177>\320\314\314<\320\314\314<33\203>33\203>\320\314L<\320\314L<\314\314\214>\314\314\214>\320\314\314<\320\314\314<\000\000\220>\000\000\220>\300\314L<\300\314L<\232\231\231>\232\231\231>\320\314\314<\320\314\314<\315\314\234>\315\314\234>\300\314L<\300\314L<ff\246>ff\246>\320\314\314<\320\314\314<\232\231\251>\232\231\251>\300\314L<\300\314L<43\263>43\263>\320\314\314<\320\314\314<gf\266>gf\266>\300\314L<\300\314L<\000\000\300>\000\000\300>\320\314\314<\320\314\314<33\303>33\303>\300\314L<\300\314L<\314\314\314>\314\314\314>\320\314\314<\320\314\314<\000\000\320>\000\000\320>\300\314L<\300\314L<\232\231\331>\232\231\331>\320\314\314<\320\314\314<\315\314\334>\315\314\334>\300\314L<\300\314L<ff\346>ff\346>\320\314\314<\320\314\314<\232\231\351>\232\231\351>\300\314L<\300\314L<43\363>43\363>\320\314\314<\320\314\314<gf\366>gf\366>\300\314L<\300\314L<\000\000\000?\000\000\000?\320\314\314<\320\314\314<\232\231\001?\232\231\001?\300\314L<\300\314L<gf\006?gf\006?\300\314\314<\300\314\314<\000\000\010?\000\000\010?\300\314L<\300\314L<\315\314\014?\315\314\014?\300\314\314<\300\314\314<ff\016?ff\016?\300\314L<\300\314L<33\023?33\023?\300\314\314<\300\314\314<\314\314\024?\314\314\024?\300\314L<\300\314L<\232\231\031?\232\231\031?\300\314\314<\300\314\314<43\033?43\033?\300\314L<\300\314L<\000\000 ?\000\000 ?\300\314\314<\300\314\314<\232\231!?\232\231!?\300\314L<\300\314L<gf&?gf&?\300\314\314<\300\314\314<\000\000(?\000\000(?\300\314L<\300\314L<\315\314,?\315\314,?\300\314\314<\300\314\314<ff.?ff.?\300\314L<\300\314L<333?333?\300\314\314<\300\314\314<\314\3144?\314\3144?\300\314L<\300\314L<\232\2319?\232\2319?\300\314\314<\300\314\314<43;?43;?\300\314L<\300\314L<\000\000@?\000\000@?\300\314\314<\300\314\314<\232\231A?\232\231A?\300\314L<\300\314L<gfF?gfF?\300\314\314<\300\314\314<\000\000H?\000\000H?\300\314L<\300\314L<\315\314L?\315\314L?\300\314\314<\300\314\314<ffN?ffN?\300\314L<\300\314L<33S?33S?\300\314\314<\300\314\314<\314\314T?\314\314T?\300\314L<\300\314L<\232\231Y?\232\231Y?\300\314\314<\300\314\314<43[?43[?\300\314L<\300\314L<\000\000`?\000\000`?\300\314\314<\300\314\314<\232\231a?\232\231a?\300\314L<\300\314L<gff?gff?\300\314\314<\300\314\314<\000\000h?\000\000h?\300\314L<\300\314L<\315\314l?\315\314l?\300\314\314<\300\314\314<ffn?ffn?\300\314L<\300\314L<33s?33s?\300\314\314<\300\314\314<\314\314t?\314\314t?\300\314L<\300\314L<\232\231y?\232\231y?\300\314\314<\300\314\314<43{?43{?\300\314L<\300\314L<\315\314\314;\315\314\314;\315\314L<\315\314L<\315\314\314;\315\314\314;\315\314L<\315\314L<\316\314\314<\316\314\314<\315\314\314<\315\314\314<\000\000\000=\000\000\000=\314\314L<\314\314L<\315\314L=\315\314L=\314\314\314<\314\314\314<fff=fff=\314\314L<\314\314L<\232\231\231=\232\231\231=\314\314\314<\314\314\314<ff\246=ff\246=\320\314L<\320\314L<\314\314\314=\314\314\314=\314\314\314<\314\314\314<\231\231\331=\231\231\331=\320\314L<\320\314L<\000\000\000>\000\000\000>\314\314\314<\314\314\314<ff\006>ff\006>\320\314L<\320\314L<\231\231\031>\231\231\031>\320\314\314<\320\314\314<\000\000 >\000\000 >\320\314L<\320\314L<333>333>\320\314\314<\320\314\314<\232\2319>\232\2319>\320\314L<\320\314L<\315\314L>\315\314L>\320\314\314<\320\314\314<43S>43S>\320\314L<\320\314L<fff>fff>\320\314\314<\320\314\314<\314\314l>\314\314l>\320\314L<\320\314L<\377\377\177>\377\377\177>\320\314\314<\320\314\314<33\203>33\203>\320\314L<\320\314L<\314\314\214>\314\314\214>\320\314\314<\320\314\314<\000\000\220>\000\000\220>\300\314L<\300\314L<\232\231\231>\232\231\231>\320\314\314<\320\314\314<\315\314\234>\315\314\234>\300\314L<\300\314L<ff\246>ff\246>\320\314\314<\320\314\314<\232\231\251>\232\231\251>\300\314L<\300\314L<43\263>43\263>\320\314\314<\320\314\314<gf\266>gf\266>\300\314L<\300\314L<\000\000\300>\000\000\300>\320\314\314<\320\314\314<33\303>33\303>\300\314L<\300\314L<\314\314\314>\314\314\314>\320\314\314<\320\314\314<\000\000\320>\000\000\320>\300\314L<\300\314L<\232\231\331>\232\231\331>\320\314\314<\320\314\314<\315\314\334>\315\314\334>\300\314L<\300\314L<ff\346>ff\346>\320\314\314<\320\314\314<\232\231\351>\232\231\351>\300\314L<\300\314L<43\363>43\363>\320\314\314<\320\314\314<gf\366>gf\366>\300\314L<\300\314L<\000\000\000?\000\000\000?\320\314\314<\320\314\314<\232\231\001?\232\231\001?\300\314L<\300\314L<gf\006?gf\006?\300\314\314<\300\314\314<\000\000\010?\000\000\010?\300\314L<\300\314L<\315\314\014?\315\314\014?\300\314\314<\300\314\314<ff\016?ff\016?\300\314L<\300\314L<33\023?33\023?\300\314\314<\300\314\314<\314\314\024?\314\314\024?\300\314L<\300\314L<\232\231\031?\232\231\031?\300\314\314<\300\314\314<43\033?43\033?\300\314L<\300\314L<\000\000 ?\000\000 ?\300\314\314<\300\314\314<\232\231!?\232\231!?\300\314L<\300\314L<gf&?gf&?\300\314\314<\300\314\314<\000\000(?\000\000(?\300\314L<\300\314L<\315\314,?\315\314,?\300\314\314<\300\314\314<ff.?ff.?\300\314L<\300\314L<333?333?\300\314\314<\300\314\314<\314\3144?\314\3144?\300\314L<\300\314L<\232\2319?\232\2319?\300\314\314<\300\314\314<43;?43;?\300\314L<\300\314L<\000\000@?\000\000@?\300\314\314<\300\314\314<\232\231A?\232\231A?\300\314L<\300\314L<gfF?gfF?\300\314\314<\300\314\314<\000\000H?\000\000H?\300\314L<\300\314L<\315\314L?\315\314L?\300\314\314<\300\314\314<ffN?ffN?\300\314L<\300\314L<33S?33S?\300\314\314<\300\314\314<\314\314T?\314\314T?\300\314L<\300\314L<\232\231Y?\232\231Y?\300\314\314<\300\314\314<43[?43[?\300\314L<\300\314L<\000\000`?\000\000`?\300\314\314<\300\314\314<\232\231a?\232\231a?\300\314L<\300\314L<gff?gff?\300\314\314<\300\314\314<\000\000h?\000\000h?\300\314L<\300\314L<\315\314l?\315\314l?\300\314\314<\300\314\314<ffn?ffn?\300\314L<\300\314L<33s?33s?\300\314\314<\300\314\314<\314\314t?\314\314t?\300\314L<\300\314L<\232\231y?\232\231y?\300\314\314<\300\314\314<43{?43{?\300\314L<\300\314L<\315\314\314;\315\314\314;\315\314L<\315\314L<\315\314\314;\315\314\314;\315\314L<\315\314L<\316\314\314<\316\314\314<\315\314\314<\315\314\314<\000\000\000=\000\000\000=\314\314L<\314\314L<\315\314L=\315\314L=\314\314\314<\314\314\314<fff=fff=\314\314L<\314\314L<\232\231\231=\232\231\231=\314\314\314<\314\314\314<ff\246=ff\246=\320\314L<\320\314L<\314\314\314=\314\314\314=\314\314\314<\314\314\314<\231\231\331=\231\231\331=\320\314L<\320\314L<\000\000\000>\000\000\000>\314\314\314<\314\314\314<ff\006>ff\006>\320\314L<\320\314L<\231\231\031>\231\231\031>\320\314\314<\320\314\314<\000\000 >\000\000 >\320\314L<\320\314L<333>333>\320\314\314<\320\314\314<\232\2319>\232\2319>\320\314L<\320\314L<\315\314L>\315\314L>\320\314\314<\320\314\314<43S>43S>\320\314L<\320\314L<fff>fff>\320\314\314<\320\314\314<\314\314l>\314\314l>\320\314L<\320\314L<\377\377\177>\377\377\177>\320\314\314<\320\314\314<33\203>33\203>\320\314L<\320\314L<\314\314\214>\314\314\214>\320\314\314<\320\314\314<\000\000\220>\000\000\220>\300\314L<\300\314L<\232\231\231>\232\231\231>\320\314\314<\320\314\314<\315\314\234>\315\314\234>\300\314L<\300\314L<ff\246>ff\246>\320\314\314<\320\314\314<\232\231\251>\232\231\251>\300\314L<\300\314L<43\263>43\263>\320\314\314<\320\314\314<gf\266>gf\266>\300\314L<\300\314L<\000\000\300>\000\000\300>\320\314\314<\320\314\314<33\303>33\303>\300\314L<\300\314L<\314\314\314>\314\314\314>\320\314\314<\320\314\314<\000\000\320>\000\000\320>\300\314L<\300\314L<\232\231\331>\232\231\331>\320\314\314<\320\314\314<\315\314\334>\315\314\334>\300\314L<\300\314L<ff\346>ff\346>\320\314\314<\320\314\314<\232\231\351>\232\231\351>\300\314L<\300\314L<43\363>43\363>\320\314\314<\320\314\314<gf\366>gf\366>\300\314L<\300\314L<\000\000\000?\000\000\000?\320\314\314<\320\314\314<\232\231\001?\232\231\001?\300\314L<\300\314L<gf\006?gf\006?\300\314\314<\300\314\314<\000\000\010?\000\000\010?\300\314L<\300\314L<\315\314\014?\315\314\014?\300\314\314<\300\314\314<ff\016?ff\016?\300\314L<\300\314L<33\023?33\023?\300\314\314<\300\314\314<\314\314\024?\314\314\024?\300\314L<\300\314L<\232\231\031?\232\231\031?\300\314\314<\300\314\314<43\033?43\033?\300\314L<\300\314L<\000\000 ?\000\000 ?\300\314\314<\300\314\314<\232\231!?\232\231!?\300\314L<\300\314L<gf&?gf&?\300\314\314<\300\314\314<\000\000(?\000\000(?\300\314L<\300\314L<\315\314,?\315\314,?\300\314\314<\300\314\314<ff.?ff.?\300\314L<\300\314L<333?333?\300\314\314<\300\314\314<\314\3144?\314\3144?\300\314L<\300\314L<\232\2319?\232\2319?\300\314\314<\300\314\314<43;?43;?\300\314L<\300\314L<\000\000@?\000\000@?\300\314\314<\300\314\314<\232\231A?\232\231A?\300\314L<\300\314L<gfF?gfF?\300\314\314<\300\314\314<\000\000H?\000\000H?\300\314L<\300\314L<\315\314L?\315\314L?\300\314\314<\300\314\314<ffN?ffN?\300\314L<\300\314L<33S?33S?\300\314\314<\300\314\314<\314\314T?\314\314T?\300\314L<\300\314L<\232\231Y?\232\231Y?\300\314\314<\300\314\314<43[?43[?\300\314L<\300\314L<\000\000`?\000\000`?\300\314\314<\300\314\314<\232\231a?\232\231a?\300\314L<\300\314L<gff?gff?\300\314\314<\300\314\314<\000\000h?\000\000h?\300\314L<\300\314L<\315\314l?\315\314l?\300\314\314<\300\314\314<ffn?ffn?\300\314L<\300\314L<33s?33s?\300\314\314<\300\314\314<\314\314t?\314\314t?\300\314L<\300\314L<\232\231y?\232\231y?\300\314\314<\300\314\314<43{?43{?\300\314L<\300\314L<\315\314\314;\315\314\314;\315\314L<\315\314L<\315\314\314;\315\314\314;\315\314L<\315\314L<\316\314\314<\316\314\314<\315\314\314<\315\314\314<\000\000\000=\000\000\000=\314\314L<\314\314L<\315\314L=\315\314L=\314\314\314<\314\314\314<fff=fff=\314\314L<\314\314L<\232\231\231=\232\231\231=\314\314\314<\314\314\314<ff\246=ff\246=\320\314L<\320\314L<\314\314\314=\314\314\314=\314\314\314<\314\314\314<\231\231\331=\231\231\331=\320\314L<\320\314L<\000\000\000>\000\000\000>\314\314\314<\314\314\314<ff\006>ff\006>\320\314L<\320\314L<\231\231\031>\231\231\031>\320\314\314<\320\314\314<\000\000 >\000\000 >\320\314L<\320\314L<333>333>\320\314\314<\320\314\314<\232\2319>\232\2319>\320\314L<\320\314L<\315\314L>\315\314L>\320\314\314<\320\314\314<43S>43S>\320\314L<\320\314L<fff>fff>\320\314\314<\320\314\314<\314\314l>\314\314l>\320\314L<\320\314L<\377\377\177>\377\377\177>\320\314\314<\320\314\314<33\203>33\203>\320\314L<\320\314L<\314\314\214>\314\314\214>\320\314\314<\320\314\314<\000\000\220>\000\000\220>\300\314L<\300\314L<\232\231\231>\232\231\231>\320\314\314<\320\314\314<\315\314\234>\315\314\234>\300\314L<\300\314L<ff\246>ff\246>\320\314\314<\320\314\314<\232\231\251>\232\231\251>\300\314L<\300\314L<43\263>43\263>\320\314\314<\320\314\314<gf\266>gf\266>\300\314L<\300\314L<\000\000\300>\000\000\300>\320\314\314<\320\314\314<33\303>33\303>\300\314L<\300\314L<\314\314\314>\314\314\314>\320\314\314<\320\314\314<\000\000\320>\000\000\320>\300\314L<\300\314L<\232\231\331>\232\231\331>\320\314\314<\320\314\314<\315\314\334>\315\314\334>\300\314L<\300\314L<ff\346>ff\346>\320\314\314<\320\314\314<\232\231\351>\232\231\351>\300\314L<\300\314L<43\363>43\363>\320\314\314<\320\314\314<gf\366>gf\366>\300\314L<\300\314L<\000\000\000?\000\000\000?\320\314\314<\320\314\314<\232\231\001?\232\231\001?\300\314L<\300\314L<gf\006?gf\006?\300\314\314<\300\314\314<\000\000\010?\000\000\010?\300\314L<\300\314L<\315\314\014?\315\314\014?\300\314\314<\300\314\314<ff\016?ff\016?\300\314L<\300\314L<33\023?33\023?\300\314\314<\300\314\314<\314\314\024?\314\314\024?\300\314L<\300\314L<\232\231\031?\232\231\031?\300\314\314<\300\314\314<43\033?43\033?\300\314L<\300\314L<\000\000 ?\000\000 ?\300\314\314<\300\314\314<\232\231!?\232\231!?\300\314L<\300\314L<gf&?gf&?\300\314\314<\300\314\314<\000\000(?\000\000(?\300\314L<\300\314L<\315\314,?\315\314,?\300\314\314<\300\314\314<ff.?ff.?\300\314L<\300\314L<333?333?\300\314\314<\300\314\314<\314\3144?\314\3144?\300\314L<\300\314L<\232\2319?\232\2319?\300\314\314<\300\314\314<43;?43;?\300\314L<\300\314L<\000\000@?\000\000@?\300\314\314<\300\314\314<\232\231A?\232\231A?\300\314L<\300\314L<gfF?gfF?\300\314\314<\300\314\314<\000\000H?\000\000H?\300\314L<\300\314L<\315\314L?\315\314L?\300\314\314<\300\314\314<ffN?ffN?\300\314L<\300\314L<33S?33S?\300\314\314<\300\314\314<\314\314T?\314\314T?\300\314L<\300\314L<\232\231Y?\232\231Y?\300\314\314<\300\314\314<43[?43[?\300\314L<\300\314L<\000\000`?\000\000`?\300\314\314<\300\314\314<\232\231a?\232\231a?\300\314L<\300\314L<gff?gff?\300\314\314<\300\314\314<\000\000h?\000\000h?\300\314L<\300\314L<\315\314l?\315\314l?\300\314\314<\300\314\314<ffn?ffn?\300\314L<\300\314L<33s?33s?\300\314\314<\300\314\314<\314\314t?\314\314t?\300\314L<\300\314L<\232\231y?\232\231y?\300\314\314<\300\314\314<43{?43{?\300\314L<\300\314L<\315\314\314;\315\314\314;\315\314L<\315\314L<\315\314\314;\315\314\314;\315\314L<\315\314L<\316\314\314<\316\314\314<\315\314\314<\315\314\314<\000\000\000=\000\000\000=\314\314L<\314\314L<\315\314L=\315\314L=\314\314\314<\314\314\314<fff=fff=\314\314L<\314\314L<\232\231\231=\232\231\231=\314\314\314<\314\314\314<ff\246=ff\246=\320\314L<\320\314L<\314\314\314=\314\314\314=\314\314\314<\314\314\314<\231\231\331=\231\231\331=\320\314L<\320\314L<\000\000\000>\000\000\000>\314\314\314<\314\314\314<ff\006>ff\006>\320\314L<\320\314L<\231\231\031>\231\231\031>\320\314\314<\320\314\314<\000\000 >\000\000 >\320\314L<\320\314L<333>333>\320\314\314<\320\314\314<\232\2319>\232\2319>\320\314L<\320\314L<\315\314L>\315\314L>\320\314\314<\320\314\314<43S>43S>\320\314L<\320\314L<fff>fff>\320\314\314<\320\314\314<\314\314l>\314\314l>\320\314L<\320\314L<\377\377\177>\377\377\177>\320\314\314<\320\314\314<33\203>33\203>\320\314L<\320\314L<\314\314\214>\314\314\214>\320\314\314<\320\314\314<\000\000\220>\000\000\220>\300\314L<\300\314L<\232\231\231>\232\231\231>\320\314\314<\320\314\314<\315\314\234>\315\314\234>\300\314L<\300\314L<ff\246>ff\246>\320\314\314<\320\314\314<\232\231\251>\232\231\251>\300\314L<\300\314L<43\263>43\263>\320\314\314<\320\314\314<gf\266>gf\266>\300\314L<\300\314L<\000\000\300>\000\000\300>\320\314\314<\320\314\314<33\303>33\303>\300\314L<\300\314L<\314\314\314>\314\314\314>\320\314\314<\320\314\314<\000\000\320>\000\000\320>\300\314L<\300\314L<\232\231\331>\232\231\331>\320\314\314<\320\314\314<\315\314\334>\315\314\334>\300\314L<\300\314L<ff\346>ff\346>\320\314\314<\320\314\314<\232\231\351>\232\231\351>\300\314L<\300\314L<43\363>43\363>\320\314\314<\320\314\314<gf\366>gf\366>\300\314L<\300\314L<\000\000\000?\000\000\000?\320\314\314<\320\314\314<\232\231\001?\232\231\001?\300\314L<\300\314L<gf\006?gf\006?\300\314\314<\300\314\314<\000\000\010?\000\000\010?\300\314L<\300\314L<\315\314\014?\315\314\014?\300\314\314<\300\314\314<ff\016?ff\016?\300\314L<\300\314L<33\023?33\023?\300\314\314<\300\314\314<\314\314\024?\314\314\024?\300\314L<\300\314L<\232\231\031?\232\231\031?\300\314\314<\300\314\314<43\033?43\033?\300\314L<\300\314L<\000\000 ?\000\000 ?\300\314\314<\300\314\314<\232\231!?\232\231!?\300\314L<\300\314L<gf&?gf&?\300\314\314<\300\314\314<\000\000(?\000\000(?\300\314L<\300\314L<\315\314,?\315\314,?\300\314\314<\300\314\314<ff.?ff.?\300\314L<\300\314L<333?333?\300\314\314<\300\314\314<\314\3144?\314\3144?\300\314L<\300\314L<\232\2319?\232\2319?\300\314\314<\300\314\314<43;?43;?\300\314L<\300\314L<\000\000@?\000\000@?\300\314\314<\300\314\314<\232\231A?\232\231A?\300\314L<\300\314L<gfF?gfF?\300\314\314<\300\314\314<\000\000H?\000\000H?\300\314L<\300\314L<\315\314L?\315\314L?\300\314\314<\300\314\314<ffN?ffN?\300\314L<\300\314L<33S?33S?\300\314\314<\300\314\314<\314\314T?\314\314T?\300\314L<\300\314L<\232\231Y?\232\231Y?\300\314\314<\300\314\314<43[?43[?\300\314L<\300\314L<\000\000`?\000\000`?\300\314\314<\300\314\314<\232\231a?\232\231a?\300\314L<\300\314L<gff?gff?\300\314\314<\300\314\314<\000\000h?\000\000h?\300\314L<\300\314L<\315\314l?\315\314l?\300\314\314<\300\314\314<ffn?ffn?\300\314L<\300\314L<33s?33s?\300\314\314<\300\314\314<\314\314t?\314\314t?\300\314L<\300\314L<\232\231y?\232\231y?\300\314\314<\300\314\314<43{?43{?\300\314L<\300\314L<\315\314\314;\315\314\314;\315\314L<\315\314L<\315\314\314;\315\314\314;\315\314L<\315\314L<\316\314\314<\316\314\314<\315\314\314<\315\314\314<\000\000\000=\000\000\000=\314\314L<\314\314L<\315\314L=\315\314L=\314\314\314<\314\314\314<fff=fff=\314\314L<\314\314L<\232\231\231=\232\231\231=\314\314\314<\314\314\314<ff\246=ff\246=\320\314L<\320\314L<\314\314\314=\314\314\314=\314\314\314<\314\314\314<\231\231\331=\231\231\331=\320\314L<\320\314L<\000\000\000>\000\000\000>\314\314\314<\314\314\314<ff\006>ff\006>\320\314L<\320\314L<\231\231\031>\231\231\031>\320\314\314<\320\314\314<\000\000 >\000\000 >\320\314L<\320\314L<333>333>\320\314\314<\320\314\314<\232\2319>\232\2319>\320\314L<\320\314L<\315\314L>\315\314L>\320\314\314<\320\314\314<43S>43S>\320\314L<\320\314L<fff>fff>\320\314\314<\320\314\314<\314\314l>\314\314l>\320\314L<\320\314L<\377\377\177>\377\377\177>\320\314\314<\320\314\314<33\203>33\203>\320\314L<\320\314L<\314\314\214>\314\314\214>\320\314\314<\320\314\314<\000\000\220>\000\000\220>\300\314L<\300\314L<\232\231\231>\232\231\231>\320\314\314<\320\314\314<\315\314\234>\315\314\234>\300\314L<\300\314L<ff\246>ff\246>\320\314\314<\320\314\314<\232\231\251>\232\231\251>\300\314L<\300\314L<43\263>43\263>\320\314\314<\320\314\314<gf\266>gf\266>\300\314L<\300\314L<\000\000\300>\000\000\300>\320\314\314<\320\314\314<33\303>33\303>\300\314L<\300\314L<\314\314\314>\314\314\314>\320\314\314<\320\314\314<\000\000\320>\000\000\320>\300\314L<\300\314L<\232\231\331>\232\231\331>\320\314\314<\320\314\314<\315\314\334>\315\314\334>\300\314L<\300\314L<ff\346>ff\346>\320\314\314<\320\314\314<\232\231\351>\232\231\351>\300\314L<\300\314L<43\363>43\363>\320\314\314<\320\314\314<gf\366>gf\366>\300\314L<\300\314L<\000\000\000?\000\000\000?\320\314\314<\320\314\314<\232\231\001?\232\231\001?\300\314L<\300\314L<gf\006?gf\006?\300\314\314<\300\314\314<\000\000\010?\000\000\010?\300\314L<\300\314L<\315\314\014?\315\314\014?\300\314\314<\300\314\314<ff\016?ff\016?\300\314L<\300\314L<33\023?33\023?\300\314\314<\300\314\314<\314\314\024?\314\314\024?\300\314L<\300\314L<\232\231\031?\232\231\031?\300\314\314<\300\314\314<43\033?43\033?\300\314L<\300\314L<\000\000 ?\000\000 ?\300\314\314<\300\314\314<\232\231!?\232\231!?\300\314L<\300\314L<gf&?gf&?\300\314\314<\300\314\314<\000\000(?\000\000(?\300\314L<\300\314L<\315\314,?\315\314,?\300\314\314<\300\314\314<ff.?ff.?\300\314L<\300\314L<333?333?\300\314\314<\300\314\314<\314\3144?\314\3144?\300\314L<\300\314L<\232\2319?\232\2319?\300\314\314<\300\314\314<43;?43;?\300\314L<\300\314L<\000\000@?\000\000@?\300\314\314<\300\314\314<\232\231A?\232\231A?\300\314L<\300\314L<gfF?gfF?\300\314\314<\300\314\314<\000\000H?\000\000H?\300\314L<\300\314L<\315\314L?\315\314L?\300\314\314<\300\314\314<ffN?ffN?\300\314L<\300\314L<33S?33S?\300\314\314<\300\314\314<\314\314T?\314\314T?\300\314L<\300\314L<\232\231Y?\232\231Y?\300\314\314<\300\314\314<43[?43[?\300\314L<\300\314L<\000\000`?\000\000`?\300\314\314<\300\314\314<\232\231a?\232\231a?\300\314L<\300\314L<gff?gff?\300\314\314<\300\314\314<\000\000h?\000\000h?\300\314L<\300\314L<\315\314l?\315\314l?\300\314\314<\300\314\314<ffn?ffn?\300\314L<\300\314L<33s?33s?\300\314\314<\300\314\314<\314\314t?\314\314t?\300\314L<\300\314L<\232\231y?\232\231y?\300\314\314<\300\314\314<43{?43{?\300\314L<\300\314L<\315\314\314;\315\314\314;\315\314L<\315\314L<\315\314\314;\315\314\314;\315\314L<\315\314L<\316\314\314<\316\314\314<\315\314\314<\315\314\314<\000\000\000=\000\000\000=\314\314L<\314\314L<\315\314L=\315\314L=\314\314\314<\314\314\314<fff=fff=\314\314L<\314\314L<\232\231\231=\232\231\231=\314\314\314<\314\314\314<ff\246=ff\246=\320\314L<\320\314L<\314\314\314=\314\314\314=\314\314\314<\314\314\314<\231\231\331=\231\231\331=\320\314L<\320\314L<\000\000\000>\000\000\000>\314\314\314<\314\314\314<ff\006>ff\006>\320\314L<\320\314L<\231\231\031>\231\231\031>\320\314\314<\320\314\314<\000\000 >\000\000 >\320\314L<\320\314L<333>333>\320\314\314<\320\314\314<\232\2319>\232\2319>\320\314L<\320\314L<\315\314L>\315\314L>\320\314\314<\320\314\314<43S>43S>\320\314L<\320\314L<fff>fff>\320\314\314<\320\314\314<\314\314l>\314\314l>\320\314L<\320\314L<\377\377\177>\377\377\177>\320\314\314<\320\314\314<33\203>33\203>\320\314L<\320\314L<\314\314\214>\314\314\214>\320\314\314<\320\314\314<\000\000\220>\000\000\220>\300\314L<\300\314L<\232\231\231>\232\231\231>\320\314\314<\320\314\314<\315\314\234>\315\314\234>\300\314L<\300\314L<ff\246>ff\246>\320\314\314<\320\314\314<\232\231\251>\232\231\251>\300\314L<\300\314L<43\263>43\263>\320\314\314<\320\314\314<gf\266>gf\266>\300\314L<\300\314L<\000\000\300>\000\000\300>\320\314\314<\320\314\314<33\303>33\303>\300\314L<\300\314L<\314\314\314>\314\314\314>\320\314\314<\320\314\314<\000\000\320>\000\000\320>\300\314L<\300\314L<\232\231\331>\232\231\331>\320\314\314<\320\314\314<\315\314\334>\315\314\334>\300\314L<\300\314L<ff\346>ff\346>\320\314\314<\320\314\314<\232\231\351>\232\231\351>\300\314L<\300\314L<43\363>43\363>\320\314\314<\320\314\314<gf\366>gf\366>\300\314L<\300\314L<\000\000\000?\000\000\000?\320\314\314<\320\314\314<\232\231\001?\232\231\001?\300\314L<\300\314L<gf\006?gf\006?\300\314\314<\300\314\314<\000\000\010?\000\000\010?\300\314L<\300\314L<\315\314\014?\315\314\014?\300\314\314<\300\314\314<ff\016?ff\016?\300\314L<\300\314L<33\023?33\023?\300\314\314<\300\314\314<\314\314\024?\314\314\024?\300\314L<\300\314L<\232\231\031?\232\231\031?\300\314\314<\300\314\314<43\033?43\033?\300\314L<\300\314L<\000\000 ?\000\000 ?\300\314\314<\300\314\314<\232\231!?\232\231!?\300\314L<\300\314L<gf&?gf&?\300\314\314<\300\314\314<\000\000(?\000\000(?\300\314L<\300\314L<\315\314,?\315\314,?\300\314\314<\300\314\314<ff.?ff.?\300\314L<\300\314L<333?333?\300\314\314<\300\314\314<\314\3144?\314\3144?\300\314L<\300\314L<\232\2319?\232\2319?\300\314\314<\300\314\314<43;?43;?\300\314L<\300\314L<\000\000@?\000\000@?\300\314\314<\300\314\314<\232\231A?\232\231A?\300\314L<\300\314L<gfF?gfF?\300\314\314<\300\314\314<\000\000H?\000\000H?\300\314L<\300\314L<\315\314L?\315\314L?\300\314\314<\300\314\314<ffN?ffN?\300\314L<\300\314L<33S?33S?\300\314\314<\300\314\314<\314\314T?\314\314T?\300\314L<\300\314L<\232\231Y?\232\231Y?\300\314\314<\300\314\314<43[?43[?\300\314L<\300\314L<\000\000`?\000\000`?\300\314\314<\300\314\314<\232\231a?\232\231a?\300\314L<\300\314L<gff?gff?\300\314\314<\300\314\314<\000\000h?\000\000h?\300\314L<\300\314L<\315\314l?\315\314l?\300\314\314<\300\314\314<ffn?ffn?\300\314L<\300\314L<33s?33s?\300\314\314<\300\314\314<\314\314t?\314\314t?\300\314L<\300\314L<\232\231y?\232\231y?\300\314\314<\300\314\314<43{?43{?\300\314L<\300\314L<\315\314\314;\315\314\314;\315\314L<\315\314L<\315\314\314;\315\314\314;\315\314L<\315\314L<\316\314\314<\316\314\314<\315\314\314<\315\314\314<\000\000\000=\000\000\000=\314\314L<\314\314L<\315\314L=\315\314L=\314\314\314<\314\314\314<fff=fff=\314\314L<\314\314L<\232\231\231=\232\231\231=\314\314\314<\314\314\314<ff\246=ff\246=\320\314L<\320\314L<\314\314\314=\314\314\314=\314\314\314<\314\314\314<\231\231\331=\231\231\331=\320\314L<\320\314L<\000\000\000>\000\000\000>\314\314\314<\314\314\314<ff\006>ff\006>\320\314L<\320\314L<\231\231\031>\231\231\031>\320\314\314<\320\314\314<\000\000 >\000\000 >\320\314L<\320\314L<333>333>\320\314\314<\320\314\314<\232\2319>\232\2319>\320\314L<\320\314L<\315\314L>\315\314L>\320\314\314<\320\314\314<43S>43S>\320\314L<\320\314L<fff>fff>\320\314\314<\320\314\314<\314\314l>\314\314l>\320\314L<\320\314L<\377\377\177>\377\377\177>\320\314\314<\320\314\314<33\203>33\203>\320\314L<\320\314L<\314\314\214>\314\314\214>\320\314\314<\320\314\314<\000\000\220>\000\000\220>\300\314L<\300\314L<\232\231\231>\232\231\231>\320\314\314<\320\314\314<\315\314\234>\315\314\234>\300\314L<\300\314L<ff\246>ff\246>\320\314\314<\320\314\314<\232\231\251>\232\231\251>\300\314L<\300\314L<43\263>43\263>\320\314\314<\320\314\314<gf\266>gf\266>\300\314L<\300\314L<\000\000\300>\000\000\300>\320\314\314<\320\314\314<33\303>33\303>\300\314L<\300\314L<\314\314\314>\314\314\314>\320\314\314<\320\314\314<\000\000\320>\000\000\320>\300\314L<\300\314L<\232\231\331>\232\231\331>\320\314\314<\320\314\314<\315\314\334>\315\314\334>\300\314L<\300\314L<ff\346>ff\346>\320\314\314<\320\314\314<\232\231\351>\232\231\351>\300\314L<\300\314L<43\363>43\363>\320\314\314<\320\314\314<gf\366>gf\366>\300\314L<\300\314L<\000\000\000?\000\000\000?\320\314\314<\320\314\314<\232\231\001?\232\231\001?\300\314L<\300\314L<gf\006?gf\006?\300\314\314<\300\314\314<\000\000\010?\000\000\010?\300\314L<\300\314L<\315\314\014?\315\314\014?\300\314\314<\300\314\314<ff\016?ff\016?\300\314L<\300\314L<33\023?33\023?\300\314\314<\300\314\314<\314\314\024?\314\314\024?\300\314L<\300\314L<\232\231\031?\232\231\031?\300\314\314<\300\314\314<43\033?43\033?\300\314L<\300\314L<\000\000 ?\000\000 ?\300\314\314<\300\314\314<\232\231!?\232\231!?\300\314L<\300\314L<gf&?gf&?\300\314\314<\300\314\314<\000\000(?\000\000(?\300\314L<\300\314L<\315\314,?\315\314,?\300\314\314<\300\314\314<ff.?ff.?\300\314L<\300\314L<333?333?\300\314\314<\300\314\314<\314\3144?\314\3144?\300\314L<\300\314L<\232\2319?\232\2319?\300\314\314<\300\314\314<43;?43;?\300\314L<\300\314L<\000\000@?\000\000@?\300\314\314<\300\314\314<\232\231A?\232\231A?\300\314L<\300\314L<gfF?gfF?\300\314\314<\300\314\314<\000\000H?\000\000H?\300\314L<\300\314L<\315\314L?\315\314L?\300\314\314<\300\314\314<ffN?ffN?\300\314L<\300\314L<33S?33S?\300\314\314<\300\314\314<\314\314T?\314\314T?\300\314L<\300\314L<\232\231Y?\232\231Y?\300\314\314<\300\314\314<43[?43[?\300\314L<\300\314L<\000\000`?\000\000`?\300\314\314<\300\314\314<\232\231a?\232\231a?\300\314L<\300\314L<gff?gff?\300\314\314<\300\314\314<\000\000h?\000\000h?\300\314L<\300\314L<\315\314l?\315\314l?\300\314\314<\300\314\314<ffn?ffn?\300\314L<\300\314L<33s?33s?\300\314\314<\300\314\314<\314\314t?\314\314t?\300\314L<\300\314L<\232\231y?\232\231y?\300\314\314<\300\314\314<43{?43{?\300\314L<\300\314L<\315\314\314;\315\314\314;\315\314L<\315\314L<\315\314\314;\315\314\314;\315\314L<\315\314L<\316\314\314<\316\314\314<\315\314\314<\315\314\314<\000\000\000=\000\000\000=\314\314L<\314\314L<\315\314L=\315\314L=\314\314\314<\314\314\314<fff=fff=\314\314L<\314\314L<\232\231\231=\232\231\231=\314\314\314<\314\314\314<ff\246=ff\246=\320\314L<\320\314L<\314\314\314=\314\314\314=\314\314\314<\314\314\314<\231\231\331=\231\231\331=\320\314L<\320\314L<\000\000\000>\000\000\000>\314\314\314<\314\314\314<ff\006>ff\006>\320\314L<\320\314L<\231\231\031>\231\231\031>\320\314\314<\320\314\314<\000\000 >\000\000 >\320\314L<\320\314L<333>333>\320\314\314<\320\314\314<\232\2319>\232\2319>\320\314L<\320\314L<\315\314L>\315\314L>\320\314\314<\320\314\314<43S>43S>\320\314L<\320\314L<fff>fff>\320\314\314<\320\314\314<\314\314l>\314\314l>\320\314L<\320\314L<\377\377\177>\377\377\177>\320\314\314<\320\314\314<33\203>33\203>\320\314L<\320\314L<\314\314\214>\314\314\214>\320\314\314<\320\314\314<\000\000\220>\000\000\220>\300\314L<\300\314L<\232\231\231>\232\231\231>\320\314\314<\320\314\314<\315\314\234>\315\314\234>\300\314L<\300\314L<ff\246>ff\246>\320\314\314<\320\314\314<\232\231\251>\232\231\251>\300\314L<\300\314L<43\263>43\263>\320\314\314<\320\314\314<gf\266>gf\266>\300\314L<\300\314L<\000\000\300>\000\000\300>\320\314\314<\320\314\314<33\303>33\303>\300\314L<\300\314L<\314\314\314>\314\314\314>\320\314\314<\320\314\314<\000\000\320>\000\000\320>\300\314L<\300\314L<\232\231\331>\232\231\331>\320\314\314<\320\314\314<\315\314\334>\315\314\334>\300\314L<\300\314L<ff\346>ff\346>\320\314\314<\320\314\314<\232\231\351>\232\231\351>\300\314L<\300\314L<43\363>43\363>\320\314\314<\320\314\314<gf\366>gf\366>\300\314L<\300\314L<\000\000\000?\000\000\000?\320\314\314<\320\314\314<\232\231\001?\232\231\001?\300\314L<\300\314L<gf\006?gf\006?\300\314\314<\300\314\314<\000\000\010?\000\000\010?\300\314L<\300\314L<\315\314\014?\315\314\014?\300\314\314<\300\314\314<ff\016?ff\016?\300\314L<\300\314L<33\023?33\023?\300\314\314<\300\314\314<\314\314\024?\314\314\024?\300\314L<\300\314L<\232\231\031?\232\231\031?\300\314\314<\300\314\314<43\033?43\033?\300\314L<\300\314L<\000\000 ?\000\000 ?\300\314\314<\300\314\314<\232\231!?\232\231!?\300\314L<\300\314L<gf&?gf&?\300\314\314<\300\314\314<\000\000(?\000\000(?\300\314L<\300\314L<\315\314,?\315\314,?\300\314\314<\300\314\314<ff.?ff.?\300\314L<\300\314L<333?333?\300\314\314<\300\314\314<\314\3144?\314\3144?\300\314L<\300\314L<\232\2319?\232\2319?\300\314\314<\300\314\314<43;?43;?\300\314L<\300\314L<\000\000@?\000\000@?\300\314\314<\300\314\314<\232\231A?\232\231A?\300\314L<\300\314L<gfF?gfF?\300\314\314<\300\314\314<\000\000H?\000\000H?\300\314L<\300\314L<\315\314L?\315\314L?\300\314\314<\300\314\314<ffN?ffN?\300\314L<\300\314L<33S?33S?\300\314\314<\300\314\314<\314\314T?\314\314T?\300\314L<\300\314L<\232\231Y?\232\231Y?\300\314\314<\300\314\314<43[?43[?\300\314L<\300\314L<\000\000`?\000\000`?\300\314\314<\300\314\314<\232\231a?\232\231a?\300\314L<\300\314L<gff?gff?\300\314\314<\300\314\314<\000\000h?\000\000h?\300\314L<\300\314L<\315\314l?\315\314l?\300\314\314<\300\314\314<ffn?ffn?\300\314L<\300\314L<33s?33s?\300\314\314<\300\314\314<\314\314t?\314\314t?\300\314L<\300\314L<\232\231y?\232\231y?\300\314\314<\300\314\314<43{?43{?\300\314L<\300\314L<\315\314\314;\315\314\314;\315\314L<\315\314L<\315\314\314;\315\314\314;\315\314L<\315\314L<\316\314\314<\316\314\314<\315\314\314<\315\314\314<\000\000\000=\000\000\000=\314\314L<\314\314L<\315\314L=\315\314L=\314\314\314<\314\314\314<fff=fff=\314\314L<\314\314L<\232\231\231=\232\231\231=\314\314\314<\314\314\314<ff\246=ff\246=\320\314L<\320\314L<\314\314\314=\314\314\314=\314\314\314<\314\314\314<\231\231\331=\231\231\331=\320\314L<\320\314L<\000\000\000>\000\000\000>\314\314\314<\314\314\314<ff\006>ff\006>\320\314L<\320\314L<\231\231\031>\231\231\031>\320\314\314<\320\314\314<\000\000 >\000\000 >\320\314L<\320\314L<333>333>\320\314\314<\320\314\314<\232\2319>\232\2319>\320\314L<\320\314L<\315\314L>\315\314L>\320\314\314<\320\314\314<43S>43S>\320\314L<\320\314L<fff>fff>\320\314\314<\320\314\314<\314\314l>\314\314l>\320\314L<\320\314L<\377\377\177>\377\377\177>\320\314\314<\320\314\314<33\203>33\203>\320\314L<\320\314L<\314\314\214>\314\314\214>\320\314\314<\320\314\314<\000\000\220>\000\000\220>\300\314L<\300\314L<\232\231\231>\232\231\231>\320\314\314<\320\314\314<\315\314\234>\315\314\234>\300\314L<\300\314L<ff\246>ff\246>\320\314\314<\320\314\314<\232\231\251>\232\231\251>\300\314L<\300\314L<43\263>43\263>\320\314\314<\320\314\314<gf\266>gf\266>\300\314L<\300\314L<\000\000\300>\000\000\300>\320\314\314<\320\314\314<33\303>33\303>\300\314L<\300\314L<\314\314\314>\314\314\314>\320\314\314<\320\314\314<\000\000\320>\000\000\320>\300\314L<\300\314L<\232\231\331>\232\231\331>\320\314\314<\320\314\314<\315\314\334>\315\314\334>\300\314L<\300\314L<ff\346>ff\346>\320\314\314<\320\314\314<\232\231\351>\232\231\351>\300\314L<\300\314L<43\363>43\363>\320\314\314<\320\314\314<gf\366>gf\366>\300\314L<\300\314L<\000\000\000?\000\000\000?\320\314\314<\320\314\314<\232\231\001?\232\231\001?\300\314L<\300\314L<gf\006?gf\006?\300\314\314<\300\314\314<\000\000\010?\000\000\010?\300\314L<\300\314L<\315\314\014?\315\314\014?\300\314\314<\300\314\314<ff\016?ff\016?\300\314L<\300\314L<33\023?33\023?\300\314\314<\300\314\314<\314\314\024?\314\314\024?\300\314L<\300\314L<\232\231\031?\232\231\031?\300\314\314<\300\314\314<43\033?43\033?\300\314L<\300\314L<\000\000 ?\000\000 ?\300\314\314<\300\314\314<\232\231!?\232\231!?\300\314L<\300\314L<gf&?gf&?\300\314\314<\300\314\314<\000\000(?\000\000(?\300\314L<\300\314L<\315\314,?\315\314,?\300\314\314<\300\314\314<ff.?ff.?\300\314L<\300\314L<333?333?\300\314\314<\300\314\314<\314\3144?\314\3144?\300\314L<\300\314L<\232\2319?\232\2319?\300\314\314<\300\314\314<43;?43;?\300\314L<\300\314L<\000\000@?\000\000@?\300\314\314<\300\314\314<\232\231A?\232\231A?\300\314L<\300\314L<gfF?gfF?\300\314\314<\300\314\314<\000\000H?\000\000H?\300\314L<\300\314L<\315\314L?\315\314L?\300\314\314<\300\314\314<ffN?ffN?\300\314L<\300\314L<33S?33S?\300\314\314<\300\314\314<\314\314T?\314\314T?\300\314L<\300\314L<\232\231Y?\232\231Y?\300\314\314<\300\314\314<43[?43[?\300\314L<\300\314L<\000\000`?\000\000`?\300\314\314<\300\314\314<\232\231a?\232\231a?\300\314L<\300\314L<gff?gff?\300\314\314<\300\314\314<\000\000h?\000\000h?\300\314L<\300\314L<\315\314l?\315\314l?\300\314\314<\300\314\314<ffn?ffn?\300\314L<\300\314L<33s?33s?\300\314\314<\300\314\314<\314\314t?\314\314t?\300\314L<\300\314L<\232\231y?\232\231y?\300\314\314<\300\314\314<43{?43{?\300\314L<\300\314L<\315\314\314;\315\314\314;\315\314L<\315\314L<\315\314\314;\315\314\314;\315\314L<\315\314L<\316\314\314<\316\314\314<\315\314\314<\315\314\314<\000\000\000=\000\000\000=\314\314L<\314\314L<\315\314L=\315\314L=\314\314\314<\314\314\314<fff=fff=\314\314L<\314\314L<\232\231\231=\232\231\231=\314\314\314<\314\314\314<ff\246=ff\246=\320\314L<\320\314L<\314\314\314=\314\314\314=\314\314\314<\314\314\314<\231\231\331=\231\231\331=\320\314L<\320\314L<\000\000\000>\000\000\000>\314\314\314<\314\314\314<ff\006>ff\006>\320\314L<\320\314L<\231\231\031>\231\231\031>\320\314\314<\320\314\314<\000\000 >\000\000 >\320\314L<\320\314L<333>333>\320\314\314<\320\314\314<\232\2319>\232\2319>\320\314L<\320\314L<\315\314L>\315\314L>\320\314\314<\320\314\314<43S>43S>\320\314L<\320\314L<fff>fff>\320\314\314<\320\314\314<\314\314l>\314\314l>\320\314L<\320\314L<\377\377\177>\377\377\177>\320\314\314<\320\314\314<33\203>33\203>\320\314L<\320\314L<\314\314\214>\314\314\214>\320\314\314<\320\314\314<\000\000\220>\000\000\220>\300\314L<\300\314L<\232\231\231>\232\231\231>\320\314\314<\320\314\314<\315\314\234>\315\314\234>\300\314L<\300\314L<ff\246>ff\246>\320\314\314<\320\314\314<\232\231\251>\232\231\251>\300\314L<\300\314L<43\263>43\263>\320\314\314<\320\314\314<gf\266>gf\266>\300\314L<\300\314L<\000\000\300>\000\000\300>\320\314\314<\320\314\314<33\303>33\303>\300\314L<\300\314L<\314\314\314>\314\314\314>\320\314\314<\320\314\314<\000\000\320>\000\000\320>\300\314L<\300\314L<\232\231\331>\232\231\331>\320\314\314<\320\314\314<\315\314\334>\315\314\334>\300\314L<\300\314L<ff\346>ff\346>\320\314\314<\320\314\314<\232\231\351>\232\231\351>\300\314L<\300\314L<43\363>43\363>\320\314\314<\320\314\314<gf\366>gf\366>\300\314L<\300\314L<\000\000\000?\000\000\000?\320\314\314<\320\314\314<\232\231\001?\232\231\001?\300\314L<\300\314L<gf\006?gf\006?\300\314\314<\300\314\314<\000\000\010?\000\000\010?\300\314L<\300\314L<\315\314\014?\315\314\014?\300\314\314<\300\314\314<ff\016?ff\016?\300\314L<\300\314L<33\023?33\023?\300\314\314<\300\314\314<\314\314\024?\314\314\024?\300\314L<\300\314L<\232\231\031?\232\231\031?\300\314\314<\300\314\314<43\033?43\033?\300\314L<\300\314L<\000\000 ?\000\000 ?\300\314\314<\300\314\314<\232\231!?\232\231!?\300\314L<\300\314L<gf&?gf&?\300\314\314<\300\314\314<\000\000(?\000\000(?\300\314L<\300\314L<\315\314,?\315\314,?\300\314\314<\300\314\314<ff.?ff.?\300\314L<\300\314L<333?333?\300\314\314<\300\314\314<\314\3144?\314\3144?\300\314L<\300\314L<\232\2319?\232\2319?\300\314\314<\300\314\314<43;?43;?\300\314L<\300\314L<\000\000@?\000\000@?\300\314\314<\300\314\314<\232\231A?\232\231A?\300\314L<\300\314L<gfF?gfF?\300\314\314<\300\314\314<\000\000H?\000\000H?\300\314L<\300\314L<\315\314L?\315\314L?\300\314\314<\300\314\314<ffN?ffN?\300\314L<\300\314L<33S?33S?\300\314\314<\300\314\314<\314\314T?\314\314T?\300\314L<\300\314L<\232\231Y?\232\231Y?\300\314\314<\300\314\314<43[?43[?\300\314L<\300\314L<\000\000`?\000\000`?\300\314\314<\300\314\314<\232\231a?\232\231a?\300\314L<\300\314L<gff?gff?\300\314\314<\300\314\314<\000\000h?\000\000h?\300\314L<\300\314L<\315\314l?\315\314l?\300\314\314<\300\314\314<ffn?ffn?\300\314L<\300\314L<33s?33s?\300\314\314<\300\314\314<\314\314t?\314\314t?\300\314L<\300\314L<\232\231y?\232\231y?\300\314\314<\300\314\314<43{?43{?\300\314L<\300\314L<\315\314\314;\315\314\314;\315\314L<\315\314L<\315\314\314;\315\314\314;\315\314L<\315\314L<\316\314\314<\316\314\314<\315\314\314<\315\314\314<\000\000\000=\000\000\000=\314\314L<\314\314L<\315\314L=\315\314L=\314\314\314<\314\314\314<fff=fff=\314\314L<\314\314L<\232\231\231=\232\231\231=\314\314\314<\314\314\314<ff\246=ff\246=\320\314L<\320\314L<\314\314\314=\314\314\314=\314\314\314<\314\314\314<\231\231\331=\231\231\331=\320\314L<\320\314L<\000\000\000>\000\000\000>\314\314\314<\314\314\314<ff\006>ff\006>\320\314L<\320\314L<\231\231\031>\231\231\031>\320\314\314<\320\314\314<\000\000 >\000\000 >\320\314L<\320\314L<333>333>\320\314\314<\320\314\314<\232\2319>\232\2319>\320\314L<\320\314L<\315\314L>\315\314L>\320\314\314<\320\314\314<43S>43S>\320\314L<\320\314L<fff>fff>\320\314\314<\320\314\314<\314\314l>\314\314l>\320\314L<\320\314L<\377\377\177>\377\377\177>\320\314\314<\320\314\314<33\203>33\203>\320\314L<\320\314L<\314\314\214>\314\314\214>\320\314\314<\320\314\314<\000\000\220>\000\000\220>\300\314L<\300\314L<\232\231\231>\232\231\231>\320\314\314<\320\314\314<\315\314\234>\315\314\234>\300\314L<\300\314L<ff\246>ff\246>\320\314\314<\320\314\314<\232\231\251>\232\231\251>\300\314L<\300\314L<43\263>43\263>\320\314\314<\320\314\314<gf\266>gf\266>\300\314L<\300\314L<\000\000\300>\000\000\300>\320\314\314<\320\314\314<33\303>33\303>\300\314L<\300\314L<\314\314\314>\314\314\314>\320\314\314<\320\314\314<\000\000\320>\000\000\320>\300\314L<\300\314L<\232\231\331>\232\231\331>\320\314\314<\320\314\314<\315\314\334>\315\314\334>\300\314L<\300\314L<ff\346>ff\346>\320\314\314<\320\314\314<\232\231\351>\232\231\351>\300\314L<\300\314L<43\363>43\363>\320\314\314<\320\314\314<gf\366>gf\366>\300\314L<\300\314L<\000\000\000?\000\000\000?\320\314\314<\320\314\314<\232\231\001?\232\231\001?\300\314L<\300\314L<gf\006?gf\006?\300\314\314<\300\314\314<\000\000\010?\000\000\010?\300\314L<\300\314L<\315\314\014?\315\314\014?\300\314\314<\300\314\314<ff\016?ff\016?\300\314L<\300\314L<33\023?33\023?\300\314\314<\300\314\314<\314\314\024?\314\314\024?\300\314L<\300\314L<\232\231\031?\232\231\031?\300\314\314<\300\314\314<43\033?43\033?\300\314L<\300\314L<\000\000 ?\000\000 ?\300\314\314<\300\314\314<\232\231!?\232\231!?\300\314L<\300\314L<gf&?gf&?\300\314\314<\300\314\314<\000\000(?\000\000(?\300\314L<\300\314L<\315\314,?\315\314,?\300\314\314<\300\314\314<ff.?ff.?\300\314L<\300\314L<333?333?\300\314\314<\300\314\314<\314\3144?\314\3144?\300\314L<\300\314L<\232\2319?\232\2319?\300\314\314<\300\314\314<43;?43;?\300\314L<\300\314L<\000\000@?\000\000@?\300\314\314<\300\314\314<\232\231A?\232\231A?\300\314L<\300\314L<gfF?gfF?\300\314\314<\300\314\314<\000\000H?\000\000H?\300\314L<\300\314L<\315\314L?\315\314L?\300\314\314<\300\314\314<ffN?ffN?\300\314L<\300\314L<33S?33S?\300\314\314<\300\314\314<\314\314T?\314\314T?\300\314L<\300\314L<\232\231Y?\232\231Y?\300\314\314<\300\314\314<43[?43[?\300\314L<\300\314L<\000\000`?\000\000`?\300\314\314<\300\314\314<\232\231a?\232\231a?\300\314L<\300\314L<gff?gff?\300\314\314<\300\314\314<\000\000h?\000\000h?\300\314L<\300\314L<\315\314l?\315\314l?\300\314\314<\300\314\314<ffn?ffn?\300\314L<\300\314L<33s?33s?\300\314\314<\300\314\314<\314\314t?\314\314t?\300\314L<\300\314L<\232\231y?\232\231y?\300\314\314<\300\314\314<43{?43{?\300\314L<\300\314L<\315\314\314;\315\314\314;\315\314L<\315\314L<\315\314\314;\315\314\314;\315\314L<\315\314L<\316\314\314<\316\314\314<\315\314\314<\315\314\314<\000\000\000=\000\000\000=\314\314L<\314\314L<\315\314L=\315\314L=\314\314\314<\314\314\314<fff=fff=\314\314L<\314\314L<\232\231\231=\232\231\231=\314\314\314<\314\314\314<ff\246=ff\246=\320\314L<\320\314L<\314\314\314=\314\314\314=\314\314\314<\314\314\314<\231\231\331=\231\231\331=\320\314L<\320\314L<\000\000\000>\000\000\000>\314\314\314<\314\314\314<ff\006>ff\006>\320\314L<\320\314L<\231\231\031>\231\231\031>\320\314\314<\320\314\314<\000\000 >\000\000 >\320\314L<\320\314L<333>333>\320\314\314<\320\314\314<\232\2319>\232\2319>\320\314L<\320\314L<\315\314L>\315\314L>\320\314\314<\320\314\314<43S>43S>\320\314L<\320\314L<fff>fff>\320\314\314<\320\314\314<\314\314l>\314\314l>\320\314L<\320\314L<\377\377\177>\377\377\177>\320\314\314<\320\314\314<33\203>33\203>\320\314L<\320\314L<\314\314\214>\314\314\214>\320\314\314<\320\314\314<\000\000\220>\000\000\220>\300\314L<\300\314L<\232\231\231>\232\231\231>\320\314\314<\320\314\314<\315\314\234>\315\314\234>\300\314L<\300\314L<ff\246>ff\246>\320\314\314<\320\314\314<\232\231\251>\232\231\251>\300\314L<\300\314L<43\263>43\263>\320\314\314<\320\314\314<gf\266>gf\266>\300\314L<\300\314L<\000\000\300>\000\000\300>\320\314\314<\320\314\314<33\303>33\303>\300\314L<\300\314L<\314\314\314>\314\314\314>\320\314\314<\320\314\314<\000\000\320>\000\000\320>\300\314L<\300\314L<\232\231\331>\232\231\331>\320\314\314<\320\314\314<\315\314\334>\315\314\334>\300\314L<\300\314L<ff\346>ff\346>\320\314\314<\320\314\314<\232\231\351>\232\231\351>\300\314L<\300\314L<43\363>43\363>\320\314\314<\320\314\314<gf\366>gf\366>\300\314L<\300\314L<\000\000\000?\000\000\000?\320\314\314<\320\314\314<\232\231\001?\232\231\001?\300\314L<\300\314L<gf\006?gf\006?\300\314\314<\300\314\314<\000\000\010?\000\000\010?\300\314L<\300\314L<\315\314\014?\315\314\014?\300\314\314<\300\314\314<ff\016?ff\016?\300\314L<\300\314L<33\023?33\023?\300\314\314<\300\314\314<\314\314\024?\314\314\024?\300\314L<\300\314L<\232\231\031?\232\231\031?\300\314\314<\300\314\314<43\033?43\033?\300\314L<\300\314L<\000\000 ?\000\000 ?\300\314\314<\300\314\314<\232\231!?\232\231!?\300\314L<\300\314L<gf&?gf&?\300\314\314<\300\314\314<\000\000(?\000\000(?\300\314L<\300\314L<\315\314,?\315\314,?\300\314\314<\300\314\314<ff.?ff.?\300\314L<\300\314L<333?333?\300\314\314<\300\314\314<\314\3144?\314\3144?\300\314L<\300\314L<\232\2319?\232\2319?\300\314\314<\300\314\314<43;?43;?\300\314L<\300\314L<\000\000@?\000\000@?\300\314\314<\300\314\314<\232\231A?\232\231A?\300\314L<\300\314L<gfF?gfF?\300\314\314<\300\314\314<\000\000H?\000\000H?\300\314L<\300\314L<\315\314L?\315\314L?\300\314\314<\300\314\314<ffN?ffN?\300\314L<\300\314L<33S?33S?\300\314\314<\300\314\314<\314\314T?\314\314T?\300\314L<\300\314L<\232\231Y?\232\231Y?\300\314\314<\300\314\314<43[?43[?\300\314L<\300\314L<\000\000`?\000\000`?\300\314\314<\300\314\314<\232\231a?\232\231a?\300\314L<\300\314L<gff?gff?\300\314\314<\300\314\314<\000\000h?\000\000h?\300\314L<\300\314L<\315\314l?\315\314l?\300\314\314<\300\314\314<ffn?ffn?\300\314L<\300\314L<33s?33s?\300\314\314<\300\314\314<\314\314t?\314\314t?\300\314L<\300\314L<\232\231y?\232\231y?\300\314\314<\300\314\314<43{?43{?\300\314L<\300\314L<\315\314\314;\315\314\314;\315\314L<\315\314L<\315\314\314;\315\314\314;\315\314L<\315\314L<\316\314\314<\316\314\314<\315\314\314<\315\314\314<\000\000\000=\000\000\000=\314\314L<\314\314L<\315\314L=\315\314L=\314\314\314<\314\314\314<fff=fff=\314\314L<\314\314L<\232\231\231=\232\231\231=\314\314\314<\314\314\314<ff\246=ff\246=\320\314L<\320\314L<\314\314\314=\314\314\314=\314\314\314<\314\314\314<\231\231\331=\231\231\331=\320\314L<\320\314L<\000\000\000>\000\000\000>\314\314\314<\314\314\314<ff\006>ff\006>\320\314L<\320\314L<\231\231\031>\231\231\031>\320\314\314<\320\314\314<\000\000 >\000\000 >\320\314L<\320\314L<333>333>\320\314\314<\320\314\314<\232\2319>\232\2319>\320\314L<\320\314L<\315\314L>\315\314L>\320\314\314<\320\314\314<43S>43S>\320\314L<\320\314L<fff>fff>\320\314\314<\320\314\314<\314\314l>\314\314l>\320\314L<\320\314L<\377\377\177>\377\377\177>\320\314\314<\320\314\314<33\203>33\203>\320\314L<\320\314L<\314\314\214>\314\314\214>\320\314\314<\320\314\314<\000\000\220>\000\000\220>\300\314L<\300\314L<\232\231\231>\232\231\231>\320\314\314<\320\314\314<\315\314\234>\315\314\234>\300\314L<\300\314L<ff\246>ff\246>\320\314\314<\320\314\314<\232\231\251>\232\231\251>\300\314L<\300\314L<43\263>43\263>\320\314\314<\320\314\314<gf\266>gf\266>\300\314L<\300\314L<\000\000\300>\000\000\300>\320\314\314<\320\314\314<33\303>33\303>\300\314L<\300\314L<\314\314\314>\314\314\314>\320\314\314<\320\314\314<\000\000\320>\000\000\320>\300\314L<\300\314L<\232\231\331>\232\231\331>\320\314\314<\320\314\314<\315\314\334>\315\314\334>\300\314L<\300\314L<ff\346>ff\346>\320\314\314<\320\314\314<\232\231\351>\232\231\351>\300\314L<\300\314L<43\363>43\363>\320\314\314<\320\314\314<gf\366>gf\366>\300\314L<\300\314L<\000\000\000?\000\000\000?\320\314\314<\320\314\314<\232\231\001?\232\231\001?\300\314L<\300\314L<gf\006?gf\006?\300\314\314<\300\314\314<\000\000\010?\000\000\010?\300\314L<\300\314L<\315\314\014?\315\314\014?\300\314\314<\300\314\314<ff\016?ff\016?\300\314L<\300\314L<33\023?33\023?\300\314\314<\300\314\314<\314\314\024?\314\314\024?\300\314L<\300\314L<\232\231\031?\232\231\031?\300\314\314<\300\314\314<43\033?43\033?\300\314L<\300\314L<\000\000 ?\000\000 ?\300\314\314<\300\314\314<\232\231!?\232\231!?\300\314L<\300\314L<gf&?gf&?\300\314\314<\300\314\314<\000\000(?\000\000(?\300\314L<\300\314L<\315\314,?\315\314,?\300\314\314<\300\314\314<ff.?ff.?\300\314L<\300\314L<333?333?\300\314\314<\300\314\314<\314\3144?\314\3144?\300\314L<\300\314L<\232\2319?\232\2319?\300\314\314<\300\314\314<43;?43;?\300\314L<\300\314L<\000\000@?\000\000@?\300\314\314<\300\314\314<\232\231A?\232\231A?\300\314L<\300\314L<gfF?gfF?\300\314\314<\300\314\314<\000\000H?\000\000H?\300\314L<\300\314L<\315\314L?\315\314L?\300\314\314<\300\314\314<ffN?ffN?\300\314L<\300\314L<33S?33S?\300\314\314<\300\314\314<\314\314T?\314\314T?\300\314L<\300\314L<\232\231Y?\232\231Y?\300\314\314<\300\314\314<43[?43[?\300\314L<\300\314L<\000\000`?\000\000`?\300\314\314<\300\314\314<\232\231a?\232\231a?\300\314L<\300\314L<gff?gff?\300\314\314<\300\314\314<\000\000h?\000\000h?\300\314L<\300\314L<\315\314l?\315\314l?\300\314\314<\300\314\314<ffn?ffn?\300\314L<\300\314L<33s?33s?\300\314\314<\300\314\314<\314\314t?\314\314t?\300\314L<\300\314L<\232\231y?\232\231y?\300\314\314<\300\314\314<43{?43{?\300\314L<\300\314L<\315\314\314;\315\314\314;\315\314L<\315\314L<\315\314\314;\315\314\314;\315\314L<\315\314L<\316\314\314<\316\314\314<\315\314\314<\315\314\314<\000\000\000=\000\000\000=\314\314L<\314\314L<\315\314L=\315\314L=\314\314\314<\314\314\314<fff=fff=\314\314L<\314\314L<\232\231\231=\232\231\231=\314\314\314<\314\314\314<ff\246=ff\246=\320\314L<\320\314L<\314\314\314=\314\314\314=\314\314\314<\314\314\314<\231\231\331=\231\231\331=\320\314L<\320\314L<\000\000\000>\000\000\000>\314\314\314<\314\314\314<ff\006>ff\006>\320\314L<\320\314L<\231\231\031>\231\231\031>\320\314\314<\320\314\314<\000\000 >\000\000 >\320\314L<\320\314L<333>333>\320\314\314<\320\314\314<\232\2319>\232\2319>\320\314L<\320\314L<\315\314L>\315\314L>\320\314\314<\320\314\314<43S>43S>\320\314L<\320\314L<fff>fff>\320\314\314<\320\314\314<\314\314l>\314\314l>\320\314L<\320\314L<\377\377\177>\377\377\177>\320\314\314<\320\314\314<33\203>33\203>\320\314L<\320\314L<\314\314\214>\314\314\214>\320\314\314<\320\314\314<\000\000\220>\000\000\220>\300\314L<\300\314L<\232\231\231>\232\231\231>\320\314\314<\320\314\314<\315\314\234>\315\314\234>\300\314L<\300\314L<ff\246>ff\246>\320\314\314<\320\314\314<\232\231\251>\232\231\251>\300\314L<\300\314L<43\263>43\263>\320\314\314<\320\314\314<gf\266>gf\266>\300\314L<\300\314L<\000\000\300>\000\000\300>\320\314\314<\320\314\314<33\303>33\303>\300\314L<\300\314L<\314\314\314>\314\314\314>\320\314\314<\320\314\314<\000\000\320>\000\000\320>\300\314L<\300\314L<\232\231\331>\232\231\331>\320\314\314<\320\314\314<\315\314\334>\315\314\334>\300\314L<\300\314L<ff\346>ff\346>\320\314\314<\320\314\314<\232\231\351>\232\231\351>\300\314L<\300\314L<43\363>43\363>\320\314\314<\320\314\314<gf\366>gf\366>\300\314L<\300\314L<\000\000\000?\000\000\000?\320\314\314<\320\314\314<\232\231\001?\232\231\001?\300\314L<\300\314L<gf\006?gf\006?\300\314\314<\300\314\314<\000\000\010?\000\000\010?\300\314L<\300\314L<\315\314\014?\315\314\014?\300\314\314<\300\314\314<ff\016?ff\016?\300\314L<\300\314L<33\023?33\023?\300\314\314<\300\314\314<\314\314\024?\314\314\024?\300\314L<\300\314L<\232\231\031?\232\231\031?\300\314\314<\300\314\314<43\033?43\033?\300\314L<\300\314L<\000\000 ?\000\000 ?\300\314\314<\300\314\314<\232\231!?\232\231!?\300\314L<\300\314L<gf&?gf&?\300\314\314<\300\314\314<\000\000(?\000\000(?\300\314L<\300\314L<\315\314,?\315\314,?\300\314\314<\300\314\314<ff.?ff.?\300\314L<\300\314L<333?333?\300\314\314<\300\314\314<\314\3144?\314\3144?\300\314L<\300\314L<\232\2319?\232\2319?\300\314\314<\300\314\314<43;?43;?\300\314L<\300\314L<\000\000@?\000\000@?\300\314\314<\300\314\314<\232\231A?\232\231A?\300\314L<\300\314L<gfF?gfF?\300\314\314<\300\314\314<\000\000H?\000\000H?\300\314L<\300\314L<\315\314L?\315\314L?\300\314\314<\300\314\314<ffN?ffN?\300\314L<\300\314L<33S?33S?\300\314\314<\300\314\314<\314\314T?\314\314T?\300\314L<\300\314L<\232\231Y?\232\231Y?\300\314\314<\300\314\314<43[?43[?\300\314L<\300\314L<\000\000`?\000\000`?\300\314\314<\300\314\314<\232\231a?\232\231a?\300\314L<\300\314L<gff?gff?\300\314\314<\300\314\314<\000\000h?\000\000h?\300\314L<\300\314L<\315\314l?\315\314l?\300\314\314<\300\314\314<ffn?ffn?\300\314L<\300\314L<33s?33s?\300\314\314<\300\314\314<\314\314t?\314\314t?\300\314L<\300\314L<\232\231y?\232\231y?\300\314\314<\300\314\314<43{?43{?\300\314L<\300\314L<\315\314\314;\315\314\314;\315\314L<\315\314L<\315\314\314;\315\314\314;\315\314L<\315\314L<\316\314\314<\316\314\314<\315\314\314<\315\314\314<\000\000\000=\000\000\000=\314\314L<\314\314L<\315\314L=\315\314L=\314\314\314<\314\314\314<fff=fff=\314\314L<\314\314L<\232\231\231=\232\231\231=\314\314\314<\314\314\314<ff\246=ff\246=\320\314L<\320\314L<\314\314\314=\314\314\314=\314\314\314<\314\314\314<\231\231\331=\231\231\331=\320\314L<\320\314L<\000\000\000>\000\000\000>\314\314\314<\314\314\314<ff\006>ff\006>\320\314L<\320\314L<\231\231\031>\231\231\031>\320\314\314<\320\314\314<\000\000 >\000\000 >\320\314L<\320\314L<333>333>\320\314\314<\320\314\314<\232\2319>\232\2319>\320\314L<\320\314L<\315\314L>\315\314L>\320\314\314<\320\314\314<43S>43S>\320\314L<\320\314L<fff>fff>\320\314\314<\320\314\314<\314\314l>\314\314l>\320\314L<\320\314L<\377\377\177>\377\377\177>\320\314\314<\320\314\314<33\203>33\203>\320\314L<\320\314L<\314\314\214>\314\314\214>\320\314\314<\320\314\314<\000\000\220>\000\000\220>\300\314L<\300\314L<\232\231\231>\232\231\231>\320\314\314<\320\314\314<\315\314\234>\315\314\234>\300\314L<\300\314L<ff\246>ff\246>\320\314\314<\320\314\314<\232\231\251>\232\231\251>\300\314L<\300\314L<43\263>43\263>\320\314\314<\320\314\314<gf\266>gf\266>\300\314L<\300\314L<\000\000\300>\000\000\300>\320\314\314<\320\314\314<33\303>33\303>\300\314L<\300\314L<\314\314\314>\314\314\314>\320\314\314<\320\314\314<\000\000\320>\000\000\320>\300\314L<\300\314L<\232\231\331>\232\231\331>\320\314\314<\320\314\314<\315\314\334>\315\314\334>\300\314L<\300\314L<ff\346>ff\346>\320\314\314<\320\314\314<\232\231\351>\232\231\351>\300\314L<\300\314L<43\363>43\363>\320\314\314<\320\314\314<gf\366>gf\366>\300\314L<\300\314L<\000\000\000?\000\000\000?\320\314\314<\320\314\314<\232\231\001?\232\231\001?\300\314L<\300\314L<gf\006?gf\006?\300\314\314<\300\314\314<\000\000\010?\000\000\010?\300\314L<\300\314L<\315\314\014?\315\314\014?\300\314\314<\300\314\314<ff\016?ff\016?\300\314L<\300\314L<33\023?33\023?\300\314\314<\300\314\314<\314\314\024?\314\314\024?\300\314L<\300\314L<\232\231\031?\232\231\031?\300\314\314<\300\314\314<43\033?43\033?\300\314L<\300\314L<\000\000 ?\000\000 ?\300\314\314<\300\314\314<\232\231!?\232\231!?\300\314L<\300\314L<gf&?gf&?\300\314\314<\300\314\314<\000\000(?\000\000(?\300\314L<\300\314L<\315\314,?\315\314,?\300\314\314<\300\314\314<ff.?ff.?\300\314L<\300\314L<333?333?\300\314\314<\300\314\314<\314\3144?\314\3144?\300\314L<\300\314L<\232\2319?\232\2319?\300\314\314<\300\314\314<43;?43;?\300\314L<\300\314L<\000\000@?\000\000@?\300\314\314<\300\314\314<\232\231A?\232\231A?\300\314L<\300\314L<gfF?gfF?\300\314\314<\300\314\314<\000\000H?\000\000H?\300\314L<\300\314L<\315\314L?\315\314L?\300\314\314<\300\314\314<ffN?ffN?\300\314L<\300\314L<33S?33S?\300\314\314<\300\314\314<\314\314T?\314\314T?\300\314L<\300\314L<\232\231Y?\232\231Y?\300\314\314<\300\314\314<43[?43[?\300\314L<\300\314L<\000\000`?\000\000`?\300\314\314<\300\314\314<\232\231a?\232\231a?\300\314L<\300\314L<gff?gff?\300\314\314<\300\314\314<\000\000h?\000\000h?\300\314L<\300\314L<\315\314l?\315\314l?\300\314\314<\300\314\314<ffn?ffn?\300\314L<\300\314L<33s?33s?\300\314\314<\300\314\314<\314\314t?\314\314t?\300\314L<\300\314L<\232\231y?\232\231y?\300\314\314<\300\314\314<43{?43{?\300\314L<\300\314L<\315\314\314;\315\314\314;\315\314L<\315\314L<\315\314\314;\315\314\314;\315\314L<\315\314L<\316\314\314<\316\314\314<\315\314\314<\315\314\314<\000\000\000=\000\000\000=\314\314L<\314\314L<\315\314L=\315\314L=\314\314\314<\314\314\314<fff=fff=\314\314L<\314\314L<\232\231\231=\232\231\231=\314\314\314<\314\314\314<ff\246=ff\246=\320\314L<\320\314L<\314\314\314=\314\314\314=\314\314\314<\314\314\314<\231\231\331=\231\231\331=\320\314L<\320\314L<\000\000\000>\000\000\000>\314\314\314<\314\314\314<ff\006>ff\006>\320\314L<\320\314L<\231\231\031>\231\231\031>\320\314\314<\320\314\314<\000\000 >\000\000 >\320\314L<\320\314L<333>333>\320\314\314<\320\314\314<\232\2319>\232\2319>\320\314L<\320\314L<\315\314L>\315\314L>\320\314\314<\320\314\314<43S>43S>\320\314L<\320\314L<fff>fff>\320\314\314<\320\314\314<\314\314l>\314\314l>\320\314L<\320\314L<\377\377\177>\377\377\177>\320\314\314<\320\314\314<33\203>33\203>\320\314L<\320\314L<\314\314\214>\314\314\214>\320\314\314<\320\314\314<\000\000\220>\000\000\220>\300\314L<\300\314L<\232\231\231>\232\231\231>\320\314\314<\320\314\314<\315\314\234>\315\314\234>\300\314L<\300\314L<ff\246>ff\246>\320\314\314<\320\314\314<\232\231\251>\232\231\251>\300\314L<\300\314L<43\263>43\263>\320\314\314<\320\314\314<gf\266>gf\266>\300\314L<\300\314L<\000\000\300>\000\000\300>\320\314\314<\320\314\314<33\303>33\303>\300\314L<\300\314L<\314\314\314>\314\314\314>\320\314\314<\320\314\314<\000\000\320>\000\000\320>\300\314L<\300\314L<\232\231\331>\232\231\331>\320\314\314<\320\314\314<\315\314\334>\315\314\334>\300\314L<\300\314L<ff\346>ff\346>\320\314\314<\320\314\314<\232\231\351>\232\231\351>\300\314L<\300\314L<43\363>43\363>\320\314\314<\320\314\314<gf\366>gf\366>\300\314L<\300\314L<\000\000\000?\000\000\000?\320\314\314<\320\314\314<\232\231\001?\232\231\001?\300\314L<\300\314L<gf\006?gf\006?\300\314\314<\300\314\314<\000\000\010?\000\000\010?\300\314L<\300\314L<\315\314\014?\315\314\014?\300\314\314<\300\314\314<ff\016?ff\016?\300\314L<\300\314L<33\023?33\023?\300\314\314<\300\314\314<\314\314\024?\314\314\024?\300\314L<\300\314L<\232\231\031?\232\231\031?\300\314\314<\300\314\314<43\033?43\033?\300\314L<\300\314L<\000\000 ?\000\000 ?\300\314\314<\300\314\314<\232\231!?\232\231!?\300\314L<\300\314L<gf&?gf&?\300\314\314<\300\314\314<\000\000(?\000\000(?\300\314L<\300\314L<\315\314,?\315\314,?\300\314\314<\300\314\314<ff.?ff.?\300\314L<\300\314L<333?333?\300\314\314<\300\314\314<\314\3144?\314\3144?\300\314L<\300\314L<\232\2319?\232\2319?\300\314\314<\300\314\314<43;?43;?\300\314L<\300\314L<\000\000@?\000\000@?\300\314\314<\300\314\314<\232\231A?\232\231A?\300\314L<\300\314L<gfF?gfF?\300\314\314<\300\314\314<\000\000H?\000\000H?\300\314L<\300\314L<\315\314L?\315\314L?\300\314\314<\300\314\314<ffN?ffN?\300\314L<\300\314L<33S?33S?\300\314\314<\300\314\314<\314\314T?\314\314T?\300\314L<\300\314L<\232\231Y?\232\231Y?\300\314\314<\300\314\314<43[?43[?\300\314L<\300\314L<\000\000`?\000\000`?\300\314\314<\300\314\314<\232\231a?\232\231a?\300\314L<\300\314L<gff?gff?\300\314\314<\300\314\314<\000\000h?\000\000h?\300\314L<\300\314L<\315\314l?\315\314l?\300\314\314<\300\314\314<ffn?ffn?\300\314L<\300\314L<33s?33s?\300\314\314<\300\314\314<\314\314t?\314\314t?\300\314L<\300\314L<\232\231y?\232\231y?\300\314\314<\300\314\314<43{?43{?\300\314L<\300\314L<\315\314\314;\315\314\314;\315\314L<\315\314L<\315\314\314;\315\314\314;\315\314L<\315\314L<\316\314\314<\316\314\314<\315\314\314<\315\314\314<\000\000\000=\000\000\000=\314\314L<\314\314L<\315\314L=\315\314L=\314\314\314<\314\314\314<fff=fff=\314\314L<\314\314L<\232\231\231=\232\231\231=\314\314\314<\314\314\314<ff\246=ff\246=\320\314L<\320\314L<\314\314\314=\314\314\314=\314\314\314<\314\314\314<\231\231\331=\231\231\331=\320\314L<\320\314L<\000\000\000>\000\000\000>\314\314\314<\314\314\314<ff\006>ff\006>\320\314L<\320\314L<\231\231\031>\231\231\031>\320\314\314<\320\314\314<\000\000 >\000\000 >\320\314L<\320\314L<333>333>\320\314\314<\320\314\314<\232\2319>\232\2319>\320\314L<\320\314L<\315\314L>\315\314L>\320\314\314<\320\314\314<43S>43S>\320\314L<\320\314L<fff>fff>\320\314\314<\320\314\314<\314\314l>\314\314l>\320\314L<\320\314L<\377\377\177>\377\377\177>\320\314\314<\320\314\314<33\203>33\203>\320\314L<\320\314L<\314\314\214>\314\314\214>\320\314\314<\320\314\314<\000\000\220>\000\000\220>\300\314L<\300\314L<\232\231\231>\232\231\231>\320\314\314<\320\314\314<\315\314\234>\315\314\234>\300\314L<\300\314L<ff\246>ff\246>\320\314\314<\320\314\314<\232\231\251>\232\231\251>\300\314L<\300\314L<43\263>43\263>\320\314\314<\320\314\314<gf\266>gf\266>\300\314L<\300\314L<\000\000\300>\000\000\300>\320\314\314<\320\314\314<33\303>33\303>\300\314L<\300\314L<\314\314\314>\314\314\314>\320\314\314<\320\314\314<\000\000\320>\000\000\320>\300\314L<\300\314L<\232\231\331>\232\231\331>\320\314\314<\320\314\314<\315\314\334>\315\314\334>\300\314L<\300\314L<ff\346>ff\346>\320\314\314<\320\314\314<\232\231\351>\232\231\351>\300\314L<\300\314L<43\363>43\363>\320\314\314<\320\314\314<gf\366>gf\366>\300\314L<\300\314L<\000\000\000?\000\000\000?\320\314\314<\320\314\314<\232\231\001?\232\231\001?\300\314L<\300\314L<gf\006?gf\006?\300\314\314<\300\314\314<\000\000\010?\000\000\010?\300\314L<\300\314L<\315\314\014?\315\314\014?\300\314\314<\300\314\314<ff\016?ff\016?\300\314L<\300\314L<33\023?33\023?\300\314\314<\300\314\314<\314\314\024?\314\314\024?\300\314L<\300\314L<\232\231\031?\232\231\031?\300\314\314<\300\314\314<43\033?43\033?\300\314L<\300\314L<\000\000 ?\000\000 ?\300\314\314<\300\314\314<\232\231!?\232\231!?\300\314L<\300\314L<gf&?gf&?\300\314\314<\300\314\314<\000\000(?\000\000(?\300\314L<\300\314L<\315\314,?\315\314,?\300\314\314<\300\314\314<ff.?ff.?\300\314L<\300\314L<333?333?\300\314\314<\300\314\314<\314\3144?\314\3144?\300\314L<\300\314L<\232\2319?\232\2319?\300\314\314<\300\314\314<43;?43;?\300\314L<\300\314L<\000\000@?\000\000@?\300\314\314<\300\314\314<\232\231A?\232\231A?\300\314L<\300\314L<gfF?gfF?\300\314\314<\300\314\314<\000\000H?\000\000H?\300\314L<\300\314L<\315\314L?\315\314L?\300\314\314<\300\314\314<ffN?ffN?\300\314L<\300\314L<33S?33S?\300\314\314<\300\314\314<\314\314T?\314\314T?\300\314L<\300\314L<\232\231Y?\232\231Y?\300\314\314<\300\314\314<43[?43[?\300\314L<\300\314L<\000\000`?\000\000`?\300\314\314<\300\314\314<\232\231a?\232\231a?\300\314L<\300\314L<gff?gff?\300\314\314<\300\314\314<\000\000h?\000\000h?\300\314L<\300\314L<\315\314l?\315\314l?\300\314\314<\300\314\314<ffn?ffn?\300\314L<\300\314L<33s?33s?\300\314\314<\300\314\314<\314\314t?\314\314t?\300\314L<\300\314L<\232\231y?\232\231y?\300\314\314<\300\314\314<43{?43{?\300\314L<\300\314L<\315\314\314;\315\314\314;\315\314L<\315\314L<\315\314\314;\315\314\314;\315\314L<\315\314L<\316\314\314<\316\314\314<\315\314\314<\315\314\314<\000\000\000=\000\000\000=\314\314L<\314\314L<\315\314L=\315\314L=\314\314\314<\314\314\314<fff=fff=\314\314L<\314\314L<\232\231\231=\232\231\231=\314\314\314<\314\314\314<ff\246=ff\246=\320\314L<\320\314L<\314\314\314=\314\314\314=\314\314\314<\314\314\314<\231\231\331=\231\231\331=\320\314L<\320\314L<\000\000\000>\000\000\000>\314\314\314<\314\314\314<ff\006>ff\006>\320\314L<\320\314L<\231\231\031>\231\231\031>\320\314\314<\320\314\314<\000\000 >\000\000 >\320\314L<\320\314L<333>333>\320\314\314<\320\314\314<\232\2319>\232\2319>\320\314L<\320\314L<\315\314L>\315\314L>\320\314\314<\320\314\314<43S>43S>\320\314L<\320\314L<fff>fff>\320\314\314<\320\314\314<\314\314l>\314\314l>\320\314L<\320\314L<\377\377\177>\377\377\177>\320\314\314<\320\314\314<33\203>33\203>\320\314L<\320\314L<\314\314\214>\314\314\214>\320\314\314<\320\314\314<\000\000\220>\000\000\220>\300\314L<\300\314L<\232\231\231>\232\231\231>\320\314\314<\320\314\314<\315\314\234>\315\314\234>\300\314L<\300\314L<ff\246>ff\246>\320\314\314<\320\314\314<\232\231\251>\232\231\251>\300\314L<\300\314L<43\263>43\263>\320\314\314<\320\314\314<gf\266>gf\266>\300\314L<\300\314L<\000\000\300>\000\000\300>\320\314\314<\320\314\314<33\303>33\303>\300\314L<\300\314L<\314\314\314>\314\314\314>\320\314\314<\320\314\314<\000\000\320>\000\000\320>\300\314L<\300\314L<\232\231\331>\232\231\331>\320\314\314<\320\314\314<\315\314\334>\315\314\334>\300\314L<\300\314L<ff\346>ff\346>\320\314\314<\320\314\314<\232\231\351>\232\231\351>\300\314L<\300\314L<43\363>43\363>\320\314\314<\320\314\314<gf\366>gf\366>\300\314L<\300\314L<\000\000\000?\000\000\000?\320\314\314<\320\314\314<\232\231\001?\232\231\001?\300\314L<\300\314L<gf\006?gf\006?\300\314\314<\300\314\314<\000\000\010?\000\000\010?\300\314L<\300\314L<\315\314\014?\315\314\014?\300\314\314<\300\314\314<ff\016?ff\016?\300\314L<\300\314L<33\023?33\023?\300\314\314<\300\314\314<\314\314\024?\314\314\024?\300\314L<\300\314L<\232\231\031?\232\231\031?\300\314\314<\300\314\314<43\033?43\033?\300\314L<\300\314L<\000\000 ?\000\000 ?\300\314\314<\300\314\314<\232\231!?\232\231!?\300\314L<\300\314L<gf&?gf&?\300\314\314<\300\314\314<\000\000(?\000\000(?\300\314L<\300\314L<\315\314,?\315\314,?\300\314\314<\300\314\314<ff.?ff.?\300\314L<\300\314L<333?333?\300\314\314<\300\314\314<\314\3144?\314\3144?\300\314L<\300\314L<\232\2319?\232\2319?\300\314\314<\300\314\314<43;?43;?\300\314L<\300\314L<\000\000@?\000\000@?\300\314\314<\300\314\314<\232\231A?\232\231A?\300\314L<\300\314L<gfF?gfF?\300\314\314<\300\314\314<\000\000H?\000\000H?\300\314L<\300\314L<\315\314L?\315\314L?\300\314\314<\300\314\314<ffN?ffN?\300\314L<\300\314L<33S?33S?\300\314\314<\300\314\314<\314\314T?\314\314T?\300\314L<\300\314L<\232\231Y?\232\231Y?\300\314\314<\300\314\314<43[?43[?\300\314L<\300\314L<\000\000`?\000\000`?\300\314\314<\300\314\314<\232\231a?\232\231a?\300\314L<\300\314L<gff?gff?\300\314\314<\300\314\314<\000\000h?\000\000h?\300\314L<\300\314L<\315\314l?\315\314l?\300\314\314<\300\314\314<ffn?ffn?\300\314L<\300\314L<33s?33s?\300\314\314<\300\314\314<\314\314t?\314\314t?\300\314L<\300\314L<\232\231y?\232\231y?\300\314\314<\300\314\314<43{?43{?\300\314L<\300\314L<\315\314\314;\315\314\314;\315\314L<\315\314L<\315\314\314;\315\314\314;\315\314L<\315\314L<\316\314\314<\316\314\314<\315\314\314<\315\314\314<\000\000\000=\000\000\000=\314\314L<\314\314L<\315\314L=\315\314L=\314\314\314<\314\314\314<fff=fff=\314\314L<\314\314L<\232\231\231=\232\231\231=\314\314\314<\314\314\314<ff\246=ff\246=\320\314L<\320\314L<\314\314\314=\314\314\314=\314\314\314<\314\314\314<\231\231\331=\231\231\331=\320\314L<\320\314L<\000\000\000>\000\000\000>\314\314\314<\314\314\314<ff\006>ff\006>\320\314L<\320\314L<\231\231\031>\231\231\031>\320\314\314<\320\314\314<\000\000 >\000\000 >\320\314L<\320\314L<333>333>\320\314\314<\320\314\314<\232\2319>\232\2319>\320\314L<\320\314L<\315\314L>\315\314L>\320\314\314<\320\314\314<43S>43S>\320\314L<\320\314L<fff>fff>\320\314\314<\320\314\314<\314\314l>\314\314l>\320\314L<\320\314L<\377\377\177>\377\377\177>\320\314\314<\320\314\314<33\203>33\203>\320\314L<\320\314L<\314\314\214>\314\314\214>\320\314\314<\320\314\314<\000\000\220>\000\000\220>\300\314L<\300\314L<\232\231\231>\232\231\231>\320\314\314<\320\314\314<\315\314\234>\315\314\234>\300\314L<\300\314L<ff\246>ff\246>\320\314\314<\320\314\314<\232\231\251>\232\231\251>\300\314L<\300\314L<43\263>43\263>\320\314\314<\320\314\314<gf\266>gf\266>\300\314L<\300\314L<\000\000\300>\000\000\300>\320\314\314<\320\314\314<33\303>33\303>\300\314L<\300\314L<\314\314\314>\314\314\314>\320\314\314<\320\314\314<\000\000\320>\000\000\320>\300\314L<\300\314L<\232\231\331>\232\231\331>\320\314\314<\320\314\314<\315\314\334>\315\314\334>\300\314L<\300\314L<ff\346>ff\346>\320\314\314<\320\314\314<\232\231\351>\232\231\351>\300\314L<\300\314L<43\363>43\363>\320\314\314<\320\314\314<gf\366>gf\366>\300\314L<\300\314L<\000\000\000?\000\000\000?\320\314\314<\320\314\314<\232\231\001?\232\231\001?\300\314L<\300\314L<gf\006?gf\006?\300\314\314<\300\314\314<\000\000\010?\000\000\010?\300\314L<\300\314L<\315\314\014?\315\314\014?\300\314\314<\300\314\314<ff\016?ff\016?\300\314L<\300\314L<33\023?33\023?\300\314\314<\300\314\314<\314\314\024?\314\314\024?\300\314L<\300\314L<\232\231\031?\232\231\031?\300\314\314<\300\314\314<43\033?43\033?\300\314L<\300\314L<\000\000 ?\000\000 ?\300\314\314<\300\314\314<\232\231!?\232\231!?\300\314L<\300\314L<gf&?gf&?\300\314\314<\300\314\314<\000\000(?\000\000(?\300\314L<\300\314L<\315\314,?\315\314,?\300\314\314<\300\314\314<ff.?ff.?\300\314L<\300\314L<333?333?\300\314\314<\300\314\314<\314\3144?\314\3144?\300\314L<\300\314L<\232\2319?\232\2319?\300\314\314<\300\314\314<43;?43;?\300\314L<\300\314L<\000\000@?\000\000@?\300\314\314<\300\314\314<\232\231A?\232\231A?\300\314L<\300\314L<gfF?gfF?\300\314\314<\300\314\314<\000\000H?\000\000H?\300\314L<\300\314L<\315\314L?\315\314L?\300\314\314<\300\314\314<ffN?ffN?\300\314L<\300\314L<33S?33S?\300\314\314<\300\314\314<\314\314T?\314\314T?\300\314L<\300\314L<\232\231Y?\232\231Y?\300\314\314<\300\314\314<43[?43[?\300\314L<\300\314L<\000\000`?\000\000`?\300\314\314<\300\314\314<\232\231a?\232\231a?\300\314L<\300\314L<gff?gff?\300\314\314<\300\314\314<\000\000h?\000\000h?\300\314L<\300\314L<\315\314l?\315\314l?\300\314\314<\300\314\314<ffn?ffn?\300\314L<\300\314L<33s?33s?\300\314\314<\300\314\314<\314\314t?\314\314t?\300\314L<\300\314L<\232\231y?\232\231y?\300\314\314<\300\314\314<43{?43{?\300\314L<\300\314L<\315\314\314;\315\314\314;\315\314L<\315\314L<\315\314\314;\315\314\314;\315\314L<\315\314L<\316\314\314<\316\314\314<\315\314\314<\315\314\314<\000\000\000=\000\000\000=\314\314L<\314\314L<\315\314L=\315\314L=\314\314\314<\314\314\314<fff=fff=\314\314L<\314\314L<\232\231\231=\232\231\231=\314\314\314<\314\314\314<ff\246=ff\246=\320\314L<\320\314L<\314\314\314=\314\314\314=\314\314\314<\314\314\314<\231\231\331=\231\231\331=\320\314L<\320\314L<\000\000\000>\000\000\000>\314\314\314<\314\314\314<ff\006>ff\006>\320\314L<\320\314L<\231\231\031>\231\231\031>\320\314\314<\320\314\314<\000\000 >\000\000 >\320\314L<\320\314L<333>333>\320\314\314<\320\314\314<\232\2319>\232\2319>\320\314L<\320\314L<\315\314L>\315\314L>\320\314\314<\320\314\314<43S>43S>\320\314L<\320\314L<fff>fff>\320\314\314<\320\314\314<\314\314l>\314\314l>\320\314L<\320\314L<\377\377\177>\377\377\177>\320\314\314<\320\314\314<33\203>33\203>\320\314L<\320\314L<\314\314\214>\314\314\214>\320\314\314<\320\314\314<\000\000\220>\000\000\220>\300\314L<\300\314L<\232\231\231>\232\231\231>\320\314\314<\320\314\314<\315\314\234>\315\314\234>\300\314L<\300\314L<ff\246>ff\246>\320\314\314<\320\314\314<\232\231\251>\232\231\251>\300\314L<\300\314L<43\263>43\263>\320\314\314<\320\314\314<gf\266>gf\266>\300\314L<\300\314L<\000\000\300>\000\000\300>\320\314\314<\320\314\314<33\303>33\303>\300\314L<\300\314L<\314\314\314>\314\314\314>\320\314\314<\320\314\314<\000\000\320>\000\000\320>\300\314L<\300\314L<\232\231\331>\232\231\331>\320\314\314<\320\314\314<\315\314\334>\315\314\334>\300\314L<\300\314L<ff\346>ff\346>\320\314\314<\320\314\314<\232\231\351>\232\231\351>\300\314L<\300\314L<43\363>43\363>\320\314\314<\320\314\314<gf\366>gf\366>\300\314L<\300\314L<\000\000\000?\000\000\000?\320\314\314<\320\314\314<\232\231\001?\232\231\001?\300\314L<\300\314L<gf\006?gf\006?\300\314\314<\300\314\314<\000\000\010?\000\000\010?\300\314L<\300\314L<\315\314\014?\315\314\014?\300\314\314<\300\314\314<ff\016?ff\016?\300\314L<\300\314L<33\023?33\023?\300\314\314<\300\314\314<\314\314\024?\314\314\024?\300\314L<\300\314L<\232\231\031?\232\231\031?\300\314\314<\300\314\314<43\033?43\033?\300\314L<\300\314L<\000\000 ?\000\000 ?\300\314\314<\300\314\314<\232\231!?\232\231!?\300\314L<\300\314L<gf&?gf&?\300\314\314<\300\314\314<\000\000(?\000\000(?\300\314L<\300\314L<\315\314,?\315\314,?\300\314\314<\300\314\314<ff.?ff.?\300\314L<\300\314L<333?333?\300\314\314<\300\314\314<\314\3144?\314\3144?\300\314L<\300\314L<\232\2319?\232\2319?\300\314\314<\300\314\314<43;?43;?\300\314L<\300\314L<\000\000@?\000\000@?\300\314\314<\300\314\314<\232\231A?\232\231A?\300\314L<\300\314L<gfF?gfF?\300\314\314<\300\314\314<\000\000H?\000\000H?\300\314L<\300\314L<\315\314L?\315\314L?\300\314\314<\300\314\314<ffN?ffN?\300\314L<\300\314L<33S?33S?\300\314\314<\300\314\314<\314\314T?\314\314T?\300\314L<\300\314L<\232\231Y?\232\231Y?\300\314\314<\300\314\314<43[?43[?\300\314L<\300\314L<\000\000`?\000\000`?\300\314\314<\300\314\314<\232\231a?\232\231a?\300\314L<\300\314L<gff?gff?\300\314\314<\300\314\314<\000\000h?\000\000h?\300\314L<\300\314L<\315\314l?\315\314l?\300\314\314<\300\314\314<ffn?ffn?\300\314L<\300\314L<33s?33s?\300\314\314<\300\314\314<\314\314t?\314\314t?\300\314L<\300\314L<\232\231y?\232\231y?\300\314\314<\300\314\314<43{?43{?\300\314L<\300\314L<\315\314\314;\315\314\314;\315\314L<\315\314L<\315\314\314;\315\314\314;\315\314L<\315\314L<\316\314\314<\316\314\314<\315\314\314<\315\314\314<\000\000\000=\000\000\000=\314\314L<\314\314L<\315\314L=\315\314L=\314\314\314<\314\314\314<fff=fff=\314\314L<\314\314L<\232\231\231=\232\231\231=\314\314\314<\314\314\314<ff\246=ff\246=\320\314L<\320\314L<\314\314\314=\314\314\314=\314\314\314<\314\314\314<\231\231\331=\231\231\331=\320\314L<\320\314L<\000\000\000>\000\000\000>\314\314\314<\314\314\314<ff\006>ff\006>\320\314L<\320\314L<\231\231\031>\231\231\031>\320\314\314<\320\314\314<\000\000 >\000\000 >\320\314L<\320\314L<333>333>\320\314\314<\320\314\314<\232\2319>\232\2319>\320\314L<\320\314L<\315\314L>\315\314L>\320\314\314<\320\314\314<43S>43S>\320\314L<\320\314L<fff>fff>\320\314\314<\320\314\314<\314\314l>\314\314l>\320\314L<\320\314L<\377\377\177>\377\377\177>\320\314\314<\320\314\314<33\203>33\203>\320\314L<\320\314L<\314\314\214>\314\314\214>\320\314\314<\320\314\314<\000\000\220>\000\000\220>\300\314L<\300\314L<\232\231\231>\232\231\231>\320\314\314<\320\314\314<\315\314\234>\315\314\234>\300\314L<\300\314L<ff\246>ff\246>\320\314\314<\320\314\314<\232\231\251>\232\231\251>\300\314L<\300\314L<43\263>43\263>\320\314\314<\320\314\314<gf\266>gf\266>\300\314L<\300\314L<\000\000\300>\000\000\300>\320\314\314<\320\314\314<33\303>33\303>\300\314L<\300\314L<\314\314\314>\314\314\314>\320\314\314<\320\314\314<\000\000\320>\000\000\320>\300\314L<\300\314L<\232\231\331>\232\231\331>\320\314\314<\320\314\314<\315\314\334>\315\314\334>\300\314L<\300\314L<ff\346>ff\346>\320\314\314<\320\314\314<\232\231\351>\232\231\351>\300\314L<\300\314L<43\363>43\363>\320\314\314<\320\314\314<gf\366>gf\366>\300\314L<\300\314L<\000\000\000?\000\000\000?\320\314\314<\320\314\314<\232\231\001?\232\231\001?\300\314L<\300\314L<gf\006?gf\006?\300\314\314<\300\314\314<\000\000\010?\000\000\010?\300\314L<\300\314L<\315\314\014?\315\314\014?\300\314\314<\300\314\314<ff\016?ff\016?\300\314L<\300\314L<33\023?33\023?\300\314\314<\300\314\314<\314\314\024?\314\314\024?\300\314L<\300\314L<\232\231\031?\232\231\031?\300\314\314<\300\314\314<43\033?43\033?\300\314L<\300\314L<\000\000 ?\000\000 ?\300\314\314<\300\314\314<\232\231!?\232\231!?\300\314L<\300\314L<gf&?gf&?\300\314\314<\300\314\314<\000\000(?\000\000(?\300\314L<\300\314L<\315\314,?\315\314,?\300\314\314<\300\314\314<ff.?ff.?\300\314L<\300\314L<333?333?\300\314\314<\300\314\314<\314\3144?\314\3144?\300\314L<\300\314L<\232\2319?\232\2319?\300\314\314<\300\314\314<43;?43;?\300\314L<\300\314L<\000\000@?\000\000@?\300\314\314<\300\314\314<\232\231A?\232\231A?\300\314L<\300\314L<gfF?gfF?\300\314\314<\300\314\314<\000\000H?\000\000H?\300\314L<\300\314L<\315\314L?\315\314L?\300\314\314<\300\314\314<ffN?ffN?\300\314L<\300\314L<33S?33S?\300\314\314<\300\314\314<\314\314T?\314\314T?\300\314L<\300\314L<\232\231Y?\232\231Y?\300\314\314<\300\314\314<43[?43[?\300\314L<\300\314L<\000\000`?\000\000`?\300\314\314<\300\314\314<\232\231a?\232\231a?\300\314L<\300\314L<gff?gff?\300\314\314<\300\314\314<\000\000h?\000\000h?\300\314L<\300\314L<\315\314l?\315\314l?\300\314\314<\300\314\314<ffn?ffn?\300\314L<\300\314L<33s?33s?\300\314\314<\300\314\314<\314\314t?\314\314t?\300\314L<\300\314L<\232\231y?\232\231y?\300\314\314<\300\314\314<43{?43{?\300\314L<\300\314L<\315\314\314;\315\314\314;\315\314L<\315\314L<\315\314\314;\315\314\314;\315\314L<\315\314L<\316\314\314<\316\314\314<\315\314\314<\315\314\314<\000\000\000=\000\000\000=\314\314L<\314\314L<\315\314L=\315\314L=\314\314\314<\314\314\314<fff=fff=\314\314L<\314\314L<\232\231\231=\232\231\231=\314\314\314<\314\314\314<ff\246=ff\246=\320\314L<\320\314L<\314\314\314=\314\314\314=\314\314\314<\314\314\314<\231\231\331=\231\231\331=\320\314L<\320\314L<\000\000\000>\000\000\000>\314\314\314<\314\314\314<ff\006>ff\006>\320\314L<\320\314L<\231\231\031>\231\231\031>\320\314\314<\320\314\314<\000\000 >\000\000 >\320\314L<\320\314L<333>333>\320\314\314<\320\314\314<\232\2319>\232\2319>\320\314L<\320\314L<\315\314L>\315\314L>\320\314\314<\320\314\314<43S>43S>\320\314L<\320\314L<fff>fff>\320\314\314<\320\314\314<\314\314l>\314\314l>\320\314L<\320\314L<\377\377\177>\377\377\177>\320\314\314<\320\314\314<33\203>33\203>\320\314L<\320\314L<\314\314\214>\314\314\214>\320\314\314<\320\314\314<\000\000\220>\000\000\220>\300\314L<\300\314L<\232\231\231>\232\231\231>\320\314\314<\320\314\314<\315\314\234>\315\314\234>\300\314L<\300\314L<ff\246>ff\246>\320\314\314<\320\314\314<\232\231\251>\232\231\251>\300\314L<\300\314L<43\263>43\263>\320\314\314<\320\314\314<gf\266>gf\266>\300\314L<\300\314L<\000\000\300>\000\000\300>\320\314\314<\320\314\314<33\303>33\303>\300\314L<\300\314L<\314\314\314>\314\314\314>\320\314\314<\320\314\314<\000\000\320>\000\000\320>\300\314L<\300\314L<\232\231\331>\232\231\331>\320\314\314<\320\314\314<\315\314\334>\315\314\334>\300\314L<\300\314L<ff\346>ff\346>\320\314\314<\320\314\314<\232\231\351>\232\231\351>\300\314L<\300\314L<43\363>43\363>\320\314\314<\320\314\314<gf\366>gf\366>\300\314L<\300\314L<\000\000\000?\000\000\000?\320\314\314<\320\314\314<\232\231\001?\232\231\001?\300\314L<\300\314L<gf\006?gf\006?\300\314\314<\300\314\314<\000\000\010?\000\000\010?\300\314L<\300\314L<\315\314\014?\315\314\014?\300\314\314<\300\314\314<ff\016?ff\016?\300\314L<\300\314L<33\023?33\023?\300\314\314<\300\314\314<\314\314\024?\314\314\024?\300\314L<\300\314L<\232\231\031?\232\231\031?\300\314\314<\300\314\314<43\033?43\033?\300\314L<\300\314L<\000\000 ?\000\000 ?\300\314\314<\300\314\314<\232\231!?\232\231!?\300\314L<\300\314L<gf&?gf&?\300\314\314<\300\314\314<\000\000(?\000\000(?\300\314L<\300\314L<\315\314,?\315\314,